{
  "version": "1.0",
  "truncation": null,
  "padding": null,
  "added_tokens": [
    {
      "id": 0,
      "content": "!",
      "single_word": false,
      "lstrip": false,
      "rstrip": false,
      "normalized": false,
      "special": true
    },
    {
      "id": 1,
      "content": "\"",
      "single_word": false,
      "lstrip": false,
      "rstrip": false,
      "normalized": false,
      "special": true
    },
    {
      "id": 2,
      "content": "#",
      "single_word": false,
      "lstrip": false,
      "rstrip": false,
      "normalized": false,
      "special": true
    },
    {
      "id": 3,
      "content": "$",
      "single_word": false,
      "lstrip": false,
      "rstrip": false,
      "normalized": false,
      "special": true
    }
  ],
  "normalizer": null,
  "pre_tokenizer": null,
  "post_processor": null,
  "decoder": null,
  "model": {
    "type": "BPE",
    "dropout": null,
    "unk_token": null,
    "continuing_subword_prefix": "",
    "end_of_word_suffix": "",
    "fuse_unk": false,
    "byte_fallback": false,
    "vocab": {
      "!": 0,
      "\"": 1,
      "#": 2,
      "$": 3,
      "%": 4,
      "&": 5,
      "'": 6,
      "(": 7,
      ")": 8,
      "*": 9,
      "+": 10,
      ",": 11,
      "-": 12,
      ".": 13,
      "/": 14,
      "0": 15,
      "1": 16,
      "2": 17,
      "3": 18,
      "4": 19,
      "5": 20,
      "6": 21,
      "7": 22,
      "8": 23,
      "9": 24,
      ":": 25,
      ";": 26,
      "<": 27,
      "=": 28,
      ">": 29,
      "?": 30,
      "@": 31,
      "A": 32,
      "B": 33,
      "C": 34,
      "D": 35,
      "E": 36,
      "F": 37,
      "G": 38,
      "H": 39,
      "I": 40,
      "J": 41,
      "K": 42,
      "L": 43,
      "M": 44,
      "N": 45,
      "O": 46,
      "P": 47,
      "Q": 48,
      "R": 49,
      "S": 50,
      "T": 51,
      "U": 52,
      "V": 53,
      "W": 54,
      "X": 55,
      "Y": 56,
      "Z": 57,
      "[": 58,
      "\\": 59,
      "]": 60,
      "^": 61,
      "_": 62,
      "`": 63,
      "a": 64,
      "b": 65,
      "c": 66,
      "d": 67,
      "e": 68,
      "f": 69,
      "g": 70,
      "h": 71,
      "i": 72,
      "j": 73,
      "k": 74,
      "l": 75,
      "m": 76,
      "n": 77,
      "o": 78,
      "p": 79,
      "q": 80,
      "r": 81,
      "s": 82,
      "t": 83,
      "u": 84,
      "v": 85,
      "w": 86,
      "x": 87,
      "y": 88,
      "z": 89,
      "{": 90,
      "|": 91,
      "}": 92,
      "~": 93,
      "": 94,
      "": 95,
      "": 96,
      "": 97,
      "": 98,
      "": 99,
      "": 100,
      "": 101,
      "": 102,
      "": 103,
      "": 104,
      "": 105,
      "": 106,
      "": 107,
      "": 108,
      "": 109,
      "": 110,
      "": 111,
      "": 112,
      "": 113,
      "": 114,
      "": 115,
      "": 116,
      "": 117,
      "": 118,
      "": 119,
      "": 120,
      "": 121,
      "": 122,
      "": 123,
      "": 124,
      "": 125,
      "": 126,
      " ": 127,
      "¡": 128,
      "¢": 129,
      "£": 130,
      "¤": 131,
      "¥": 132,
      "¦": 133,
      "§": 134,
      "¨": 135,
      "©": 136,
      "ª": 137,
      "«": 138,
      "¬": 139,
      "­": 140,
      "®": 141,
      "¯": 142,
      "°": 143,
      "±": 144,
      "²": 145,
      "³": 146,
      "´": 147,
      "µ": 148,
      "¶": 149,
      "·": 150,
      "¸": 151,
      "¹": 152,
      "º": 153,
      "»": 154,
      "¼": 155,
      "½": 156,
      "¾": 157,
      "¿": 158,
      "À": 159,
      "Á": 160,
      "Â": 161,
      "Ã": 162,
      "Ä": 163,
      "Å": 164,
      "Æ": 165,
      "Ç": 166,
      "È": 167,
      "É": 168,
      "Ê": 169,
      "Ë": 170,
      "Ì": 171,
      "Í": 172,
      "Î": 173,
      "Ï": 174,
      "Ð": 175,
      "Ñ": 176,
      "Ò": 177,
      "Ó": 178,
      "Ô": 179,
      "Õ": 180,
      "Ö": 181,
      "×": 182,
      "Ø": 183,
      "Ù": 184,
      "Ú": 185,
      "Û": 186,
      "Ü": 187,
      "Ý": 188,
      "Þ": 189,
      "ß": 190,
      "à": 191,
      "á": 192,
      "â": 193,
      "ã": 194,
      "ä": 195,
      "å": 196,
      "æ": 197,
      "ç": 198,
      "è": 199,
      "é": 200,
      "ê": 201,
      "ë": 202,
      "ì": 203,
      "í": 204,
      "î": 205,
      "ï": 206,
      "ð": 207,
      "ñ": 208,
      "ò": 209,
      "ó": 210,
      "ô": 211,
      "õ": 212,
      "ö": 213,
      "÷": 214,
      "ø": 215,
      "ù": 216,
      "ú": 217,
      "û": 218,
      "ü": 219,
      "ý": 220,
      "þ": 221,
      "ÿ": 222,
      "Ā": 223,
      "ā": 224,
      "Ă": 225,
      "ă": 226,
      "Ą": 227,
      "ą": 228,
      "Ć": 229,
      "ć": 230,
      "Ĉ": 231,
      "ĉ": 232,
      "Ċ": 233,
      "ċ": 234,
      "Č": 235,
      "č": 236,
      "Ď": 237,
      "ď": 238,
      "Đ": 239,
      "đ": 240,
      "Ē": 241,
      "ē": 242,
      "Ĕ": 243,
      "ĕ": 244,
      "Ė": 245,
      "ė": 246,
      "Ę": 247,
      "ę": 248,
      "Ě": 249,
      "ě": 250,
      "Ĝ": 251,
      "ĝ": 252,
      "Ğ": 253,
      "ğ": 254,
      "Ġ": 255,
      "ġ": 256,
      "Ģ": 257,
      "ģ": 258,
      "Ĥ": 259,
      "ĥ": 260,
      "Ħ": 261,
      "ħ": 262,
      "Ĩ": 263,
      "ĩ": 264,
      "Ī": 265,
      "ī": 266,
      "Ĭ": 267,
      "ĭ": 268,
      "Į": 269,
      "į": 270,
      "İ": 271,
      "ı": 272,
      "Ĳ": 273,
      "ĳ": 274,
      "Ĵ": 275,
      "ĵ": 276,
      "Ķ": 277,
      "ķ": 278,
      "ĸ": 279,
      "Ĺ": 280,
      "ĺ": 281,
      "Ļ": 282,
      "ļ": 283,
      "Ľ": 284,
      "ľ": 285,
      "Ŀ": 286,
      "ŀ": 287,
      "Ł": 288,
      "ł": 289,
      "Ń": 290,
      "ń": 291,
      "Ņ": 292,
      "ņ": 293,
      "Ň": 294,
      "ň": 295,
      "ŉ": 296,
      "Ŋ": 297,
      "ŋ": 298,
      "Ō": 299,
      "ō": 300,
      "Ŏ": 301,
      "ŏ": 302,
      "Ő": 303,
      "ő": 304,
      "Œ": 305,
      "œ": 306,
      "Ŕ": 307,
      "ŕ": 308,
      "Ŗ": 309,
      "ŗ": 310,
      "Ř": 311,
      "ř": 312,
      "Ś": 313,
      "ś": 314,
      "Ŝ": 315,
      "ŝ": 316,
      "Ş": 317,
      "ş": 318,
      "Š": 319,
      "š": 320,
      "Ţ": 321,
      "ţ": 322,
      "Ť": 323,
      "ť": 324,
      "Ŧ": 325,
      "ŧ": 326,
      "Ũ": 327,
      "ũ": 328,
      "Ū": 329,
      "ū": 330,
      "Ŭ": 331,
      "ŭ": 332,
      "Ů": 333,
      "ů": 334,
      "Ű": 335,
      "ű": 336,
      "Ų": 337,
      "ų": 338,
      "Ŵ": 339,
      "ŵ": 340,
      "Ŷ": 341,
      "ŷ": 342,
      "Ÿ": 343,
      "Ź": 344,
      "ź": 345,
      "Ż": 346,
      "ż": 347,
      "Ž": 348,
      "ž": 349,
      "ſ": 350,
      "ƀ": 351,
      "Ɓ": 352,
      "Ƃ": 353,
      "ƃ": 354,
      "Ƅ": 355,
      "ƅ": 356,
      "Ɔ": 357,
      "Ƈ": 358,
      "ƈ": 359,
      "Ɖ": 360,
      "Ɗ": 361,
      "Ƌ": 362,
      "ƌ": 363,
      "ƍ": 364,
      "Ǝ": 365,
      "Ə": 366,
      "Ɛ": 367,
      "Ƒ": 368,
      "ƒ": 369,
      "Ɠ": 370,
      "Ɣ": 371,
      "ƕ": 372,
      "Ɩ": 373,
      "Ɨ": 374,
      "Ƙ": 375,
      "ƙ": 376,
      "ƚ": 377,
      "ƛ": 378,
      "Ɯ": 379,
      "Ɲ": 380,
      "ƞ": 381,
      "Ɵ": 382,
      "Ơ": 383,
      "ơ": 384,
      "Ƣ": 385,
      "ƣ": 386,
      "Ƥ": 387,
      "ƥ": 388,
      "Ʀ": 389,
      "Ƨ": 390,
      "ƨ": 391,
      "Ʃ": 392,
      "ƪ": 393,
      "ƫ": 394,
      "Ƭ": 395,
      "ƭ": 396,
      "Ʈ": 397,
      "Ư": 398,
      "ư": 399,
      "Ʊ": 400,
      "Ʋ": 401,
      "Ƴ": 402,
      "ƴ": 403,
      "Ƶ": 404,
      "ƶ": 405,
      "Ʒ": 406,
      "Ƹ": 407,
      "ƹ": 408,
      "ƺ": 409,
      "ƻ": 410,
      "Ƽ": 411,
      "ƽ": 412,
      "ƾ": 413,
      "ƿ": 414,
      "ǀ": 415,
      "ǁ": 416,
      "ǂ": 417,
      "ǃ": 418,
      "Ǆ": 419,
      "ǅ": 420,
      "ǆ": 421,
      "Ǉ": 422,
      "ǈ": 423,
      "ǉ": 424,
      "Ǌ": 425,
      "ǋ": 426,
      "ǌ": 427,
      "Ǎ": 428,
      "ǎ": 429,
      "Ǐ": 430,
      "ǐ": 431,
      "Ǒ": 432,
      "ǒ": 433,
      "Ǔ": 434,
      "ǔ": 435,
      "Ǖ": 436,
      "ǖ": 437,
      "Ǘ": 438,
      "ǘ": 439,
      "Ǚ": 440,
      "ǚ": 441,
      "Ǜ": 442,
      "ǜ": 443,
      "ǝ": 444,
      "Ǟ": 445,
      "ǟ": 446,
      "Ǡ": 447,
      "ǡ": 448,
      "Ǣ": 449,
      "ǣ": 450,
      "Ǥ": 451,
      "ǥ": 452,
      "Ǧ": 453,
      "ǧ": 454,
      "Ǩ": 455,
      "ǩ": 456,
      "Ǫ": 457,
      "ǫ": 458,
      "Ǭ": 459,
      "ǭ": 460,
      "Ǯ": 461,
      "ǯ": 462,
      "ǰ": 463,
      "Ǳ": 464,
      "ǲ": 465,
      "ǳ": 466,
      "Ǵ": 467,
      "ǵ": 468,
      "Ƕ": 469,
      "Ƿ": 470,
      "Ǹ": 471,
      "ǹ": 472,
      "Ǻ": 473,
      "ǻ": 474,
      "Ǽ": 475,
      "ǽ": 476,
      "Ǿ": 477,
      "ǿ": 478,
      "Ȁ": 479,
      "ȁ": 480,
      "Ȃ": 481,
      "ȃ": 482,
      "Ȅ": 483,
      "ȅ": 484,
      "Ȇ": 485,
      "ȇ": 486,
      "Ȉ": 487,
      "ȉ": 488,
      "Ȋ": 489,
      "ȋ": 490,
      "Ȍ": 491,
      "ȍ": 492,
      "Ȏ": 493,
      "ȏ": 494,
      "Ȑ": 495,
      "ȑ": 496,
      "Ȓ": 497,
      "ȓ": 498,
      "Ȕ": 499,
      "ȕ": 500,
      "Ȗ": 501,
      "ȗ": 502,
      "Ș": 503,
      "ș": 504,
      "Ț": 505,
      "ț": 506,
      "Ȝ": 507,
      "ȝ": 508,
      "Ȟ": 509,
      "ȟ": 510,
      "Ƞ": 511,
      "ȡ": 512,
      "Ȣ": 513,
      "ȣ": 514,
      "Ȥ": 515,
      "ȥ": 516,
      "Ȧ": 517,
      "ȧ": 518,
      "Ȩ": 519,
      "ȩ": 520,
      "Ȫ": 521,
      "ȫ": 522,
      "Ȭ": 523,
      "ȭ": 524,
      "Ȯ": 525,
      "ȯ": 526,
      "Ȱ": 527,
      "ȱ": 528,
      "Ȳ": 529,
      "ȳ": 530,
      "ȴ": 531,
      "ȵ": 532,
      "ȶ": 533,
      "ȷ": 534,
      "ȸ": 535,
      "ȹ": 536,
      "Ⱥ": 537,
      "Ȼ": 538,
      "ȼ": 539,
      "Ƚ": 540,
      "Ⱦ": 541,
      "ȿ": 542,
      "ɀ": 543,
      "Ɂ": 544,
      "ɂ": 545,
      "Ƀ": 546,
      "Ʉ": 547,
      "Ʌ": 548,
      "Ɇ": 549,
      "ɇ": 550,
      "Ɉ": 551,
      "ɉ": 552,
      "Ɋ": 553,
      "ɋ": 554,
      "Ɍ": 555,
      "ɍ": 556,
      "Ɏ": 557,
      "ɏ": 558,
      "ɐ": 559,
      "ɑ": 560,
      "ɒ": 561,
      "ǉ": 562,
      "ǉ": 563,
      "ǉō": 564,
      "ǉō": 565,
      "¡": 566,
      "ǉŇ": 567,
      "¡": 568,
      "%ɒ": 569,
      "ǉņ": 570,
      "%ɒÞ": 571,
      "": 572,
      "": 573,
      "": 574,
      "ǉŉ": 575,
      "ǉō": 576,
      "": 577,
      "ǉř": 578,
      "¡": 579,
      "": 580,
      "ǣ": 581,
      "": 582,
      " ": 583,
      " ": 584,
      "¡ǣ": 585,
      " ": 586,
      "": 587,
      "": 588,
      "": 589,
      "": 590,
      "ǉ": 591,
      "": 592,
      "": 593,
      "": 594,
      "": 595,
      "¥": 596,
      "": 597,
      "ǉŋ": 598,
      "¡": 599,
      "": 600,
      "ǉŨ": 601,
      "": 602,
      "": 603,
      "¡": 604,
      "": 605,
      "ǉř": 606,
      "Ǌ": 607,
      "": 608,
      "ǉō": 609,
      "ǉũ": 610,
      "¥": 611,
      "¡": 612,
      "": 613,
      "¡": 614,
      "¡": 615,
      "ǉő": 616,
      "": 617,
      "¡": 618,
      "¡": 619,
      "": 620,
      "": 621,
      "": 622,
      "ǉŏ": 623,
      "ǉ": 624,
      "¡": 625,
      "¡": 626,
      "": 627,
      "¡": 628,
      "¡": 629,
      "ǉ": 630,
      "": 631,
      " ": 632,
      "ǉ": 633,
      " ": 634,
      "": 635,
      "": 636,
      "": 637,
      "": 638,
      "": 639,
      "ǉŖ": 640,
      "": 641,
      "ǉŉ": 642,
      "": 643,
      "ǉņ": 644,
      " ": 645,
      "": 646,
      "ǣJ": 647,
      "¡": 648,
      "ǣQ": 649,
      " ": 650,
      "¢": 651,
      " ": 652,
      " ": 653,
      "ǣO": 654,
      "ǉŇ": 655,
      "ǉő": 656,
      "": 657,
      "ǉŖ": 658,
      "ǉŨ": 659,
      "¥": 660,
      " ": 661,
      "ǊO": 662,
      "¢": 663,
      "¢": 664,
      "ǉŋ": 665,
      "": 666,
      "ǣM": 667,
      "ǊQ": 668,
      "": 669,
      "": 670,
      "": 671,
      "ǣL": 672,
      "": 673,
      "ǣH": 674,
      "ǉŵ": 675,
      "ǉŇ": 676,
      "¥": 677,
      "ǊM": 678,
      " ": 679,
      "ǊT": 680,
      "ǫ2": 681,
      "ǫ5": 682,
      "": 683,
      " ": 684,
      "¥": 685,
      "ǫ7": 686,
      " ": 687,
      "¥": 688,
      "¡": 689,
      "ǉō": 690,
      "ǉŏ": 691,
      "ǊJ": 692,
      " ": 693,
      "ǥQ": 694,
      "ǥO": 695,
      "£": 696,
      "£": 697,
      "¥": 698,
      "¡": 699,
      "ǊV": 700,
      "ǫ0": 701,
      "ǉř": 702,
      "ǊR": 703,
      " ": 704,
      "¥": 705,
      "ǉņ": 706,
      "ǉň": 707,
      "ǥJ": 708,
      "¥": 709,
      "¡": 710,
      "ǉũ": 711,
      "ǣT": 712,
      "ǊL": 713,
      "ǥM": 714,
      "ǢO": 715,
      "ǉŉ": 716,
      "ǊH": 717,
      "¤": 718,
      "ǉō": 719,
      "": 720,
      "ǣR": 721,
      "¥": 722,
      "ǣE": 723,
      "¥": 724,
      "ǢJ": 725,
      "ǢQ": 726,
      "ǉŨ": 727,
      "¥": 728,
      "ǉō": 729,
      "": 730,
      "ǦJ": 731,
      "": 732,
      "¥": 733,
      "ǫ9": 734,
      "£": 735,
      "âǉō": 736,
      " ": 737,
      "¢": 738,
      "ǥL": 739,
      "¥": 740,
      "ǉō": 741,
      "ǫ4": 742,
      "": 743,
      "ǣN": 744,
      "ǥT": 745,
      "ǣS": 746,
      "¢": 747,
      " ": 748,
      "ǉō": 749,
      "ǥH": 750,
      "ǢM": 751,
      "ǦC": 752,
      "­": 753,
      "ǉō": 754,
      "ǉō": 755,
      "ǉŢ": 756,
      "¢": 757,
      "ǢH": 758,
      "ǨJ": 759,
      "ǣC": 760,
      "ǊY": 761,
      "ǉũ": 762,
      "ǉţ": 763,
      "ǨE": 764,
      "¢": 765,
      "ǊS": 766,
      "ǧJ": 767,
      "ǦE": 768,
      "ǉš": 769,
      "ǧE": 770,
      "ǭ7": 771,
      "¢": 772,
      "ǦH": 773,
      "ǊX": 774,
      "Ǌ[": 775,
      "ǣK": 776,
      "©": 777,
      "ǢL": 778,
      "ǉŋ": 779,
      "ǣF": 780,
      "ǉō": 781,
      "ǨH": 782,
      "ǊN": 783,
      "ǉō": 784,
      "ǫ.": 785,
      "¤": 786,
      "£": 787,
      "ǊK": 788,
      "¢": 789,
      "ǭ5": 790,
      "ǣV": 791,
      "ǭ2": 792,
      "ǨC": 793,
      "ǥV": 794,
      "ǢT": 795,
      "ǥR": 796,
      "¥": 797,
      "£": 798,
      " ": 799,
      "¡": 800,
      "¡": 801,
      "£": 802,
      "ǋO": 803,
      "ǫ-": 804,
      "¢": 805,
      "ǊP": 806,
      "ǉō": 807,
      "ǉŊ": 808,
      "¤": 809,
      "ǉŵ": 810,
      "ǫ3": 811,
      "¡ǧ": 812,
      "ǉő": 813,
      "ǋM": 814,
      "ǉō": 815,
      "ǋQ": 816,
      "ǦL": 817,
      "ǣI": 818,
      "ǭ9": 819,
      "ǉŊ": 820,
      "ǥS": 821,
      "ǫ<": 822,
      "ǉŏ": 823,
      "ǥE": 824,
      "ǧQ": 825,
      "¤": 826,
      "ǨO": 827,
      "£": 828,
      "©": 829,
      "ǨL": 830,
      "ǦO": 831,
      "£": 832,
      "ǉŉ": 833,
      "ǥN": 834,
      "ǧO": 835,
      "ǤO": 836,
      "ǊF": 837,
      "ǋT": 838,
      "¢": 839,
      "£": 840,
      "": 841,
      "ǊW": 842,
      "ǧL": 843,
      "ǉŘ": 844,
      "òǉō": 845,
      "ǉō": 846,
      "ǤQ": 847,
      "ǨA": 848,
      "ǦM": 849,
      "Ǌ]": 850,
      "ǢS": 851,
      "ǧH": 852,
      "­": 853,
      "ǧC": 854,
      "": 855,
      "ǣP": 856,
      "ǉŞ": 857,
      "ǨQ": 858,
      "ǊU": 859,
      " ": 860,
      "ǋJ": 861,
      "æǉŉ": 862,
      "ǦA": 863,
      "ǉś": 864,
      "ǣ": 865,
      "Ǧ>": 866,
      "ǤM": 867,
      "ǢE": 868,
      "ǉŐ": 869,
      "¢": 870,
      "ǊE": 871,
      "Ǫ7": 872,
      "ǉŞ": 873,
      "ǉŔ": 874,
      "¥": 875,
      "ǉŖ": 876,
      "¢": 877,
      "Ǩ@": 878,
      "ǣG": 879,
      "ǊA": 880,
      "ǫ:": 881,
      "ǉŔ": 882,
      "ǉň": 883,
      "ǫ6": 884,
      "£": 885,
      "öǉŉ": 886,
      "¤": 887,
      "ǉŖ": 888,
      "¡ǉō": 889,
      "¤": 890,
      "ǦQ": 891,
      "¥": 892,
      "ǧM": 893,
      "ǤJ": 894,
      "ǊC": 895,
      "ǨF": 896,
      "ǉŇǉō": 897,
      "ǫ>": 898,
      "½": 899,
      "¢": 900,
      "ǥK": 901,
      "ǭ4": 902,
      "ǋV": 903,
      "ǊI": 904,
      "ǣA": 905,
      "ǭ0": 906,
      "ǫ1": 907,
      "ǉō": 908,
      "ǢR": 909,
      "ǢN": 910,
      "ǥP": 911,
      " ": 912,
      "ǨG": 913,
      "¢": 914,
      "ǉř": 915,
      "ǫ/": 916,
      "ǋL": 917,
      "ǥG": 918,
      "ǉŌ": 919,
      "ǧA": 920,
      "Ǩ>": 921,
      "ǭ<": 922,
      "£": 923,
      "­": 924,
      "£": 925,
      "ǨM": 926,
      "ǉō": 927,
      "": 928,
      "": 929,
      "ǉō": 930,
      "Ǫ5": 931,
      "êǉō": 932,
      "ǦG": 933,
      "¡": 934,
      "¡ǉŇ": 935,
      "Ǧ@": 936,
      "ǥC": 937,
      "ǉō": 938,
      "ǢC": 939,
      "ǋH": 940,
      "£": 941,
      "ǢV": 942,
      "ǉš": 943,
      "¤": 944,
      "¢": 945,
      "ǧG": 946,
      "£": 947,
      "ǣ>": 948,
      "¤": 949,
      "Ǌ<": 950,
      "ǣX": 951,
      "ǉŴ": 952,
      "Ǧ<": 953,
      "¡ǉŇ": 954,
      "¤": 955,
      "¡ǣQ": 956,
      "¡ǉō": 957,
      "ǣż": 958,
      "ǧ>": 959,
      "Ǌ`": 960,
      "ǤR": 961,
      "ǋR": 962,
      "ǉō": 963,
      "ǤH": 964,
      "ǣO": 965,
      " ": 966,
      "ǉŎ": 967,
      "Ɖî": 968,
      "ǢK": 969,
      "àǉō": 970,
      "ǥY": 971,
      "­": 972,
      "¡ǣO": 973,
      "Ǫ<": 974,
      "ǊG": 975,
      "úǉō": 976,
      "ǉō": 977,
      "¤": 978,
      "ǥX": 979,
      "ǤV": 980,
      "Ǩ<": 981,
      "ǫ8": 982,
      "ǤT": 983,
      "ǉř": 984,
      "ǊZ": 985,
      "Ǌ>": 986,
      "ǣJ": 987,
      "ǧV": 988,
      "¥": 989,
      "ǣQ": 990,
      "ǧ@": 991,
      "ǦF": 992,
      "ǉŘ": 993,
      "Ǫ9": 994,
      "ǉŢ": 995,
      "¤": 996,
      "ǧF": 997,
      "­": 998,
      "¤": 999,
      "¤": 1000,
      "ǺQ": 1001,
      "ǣ@": 1002,
      "ǣU": 1003,
      "ǤL": 1004,
      "ǉņǉō": 1005,
      "­": 1006,
      "£": 1007,
      "Ǌ^": 1008,
      "ǥU": 1009,
      "ǧS": 1010,
      "ǦN": 1011,
      "ǥI": 1012,
      "ǉő": 1013,
      "ǥF": 1014,
      "ǦT": 1015,
      "¡": 1016,
      "ǧT": 1017,
      "ǭ6": 1018,
      "": 1019,
      "îǉō": 1020,
      "ǣ<": 1021,
      "Ɖö": 1022,
      "Ǧ9": 1023,
      "ǧI": 1024,
      "Ǭ2": 1025,
      "ǉŠ": 1026,
      "îǉŇ": 1027,
      "©": 1028,
      "ǺO": 1029,
      "ǋS": 1030,
      "¡ǣJ": 1031,
      "ǺT": 1032,
      "ǉŜ": 1033,
      "ǥW": 1034,
      "ǭ>": 1035,
      " ǉō": 1036,
      "ǉō": 1037,
      "ǫ;": 1038,
      "Ǌ:": 1039,
      "Ǫ>": 1040,
      "ǨT": 1041,
      "¡": 1042,
      "Ǫ2": 1043,
      "ǉř": 1044,
      "": 1045,
      "¨": 1046,
      "¡ǉņ": 1047,
      "¤": 1048,
      "ǨI": 1049,
      "ǉō": 1050,
      "ǥ@": 1051,
      "Ǌb": 1052,
      "ǉŐ": 1053,
      "©": 1054,
      "ǺV": 1055,
      "ǏQ": 1056,
      "ǭ:": 1057,
      "ǉŨ": 1058,
      "¢": 1059,
      "ǉō": 1060,
      "ǨB": 1061,
      "ðǉō": 1062,
      "Ǫ:": 1063,
      "ǥA": 1064,
      "¡ǣL": 1065,
      "ǉř": 1066,
      "ǨV": 1067,
      "ǣM": 1068,
      "ǢI": 1069,
      "¡ǣM": 1070,
      "Ǌ\\": 1071,
      "èǉō": 1072,
      "ǉŇ": 1073,
      "ǉō": 1074,
      "ǉř": 1075,
      "Ɖæ": 1076,
      "Ǌż": 1077,
      "ǜ[": 1078,
      "ǢP": 1079,
      "ǉō": 1080,
      "ǉţ": 1081,
      "ǉō": 1082,
      "ǉř": 1083,
      "ǭ3": 1084,
      "îǉņ": 1085,
      "ǺM": 1086,
      "ǏO": 1087,
      "ǨD": 1088,
      "Ǌ9": 1089,
      "ǋX": 1090,
      "ǜ]": 1091,
      "Ǌ7": 1092,
      "Ǩ9": 1093,
      "ǉř": 1094,
      "ǢF": 1095,
      "ǭ;": 1096,
      "": 1097,
      "Ǳ5": 1098,
      "¦": 1099,
      "ǦB": 1100,
      "©": 1101,
      "%ɒÞǉŇ": 1102,
      "ìǉō": 1103,
      "øǉō": 1104,
      "ǉş": 1105,
      "¤": 1106,
      "©": 1107,
      "©": 1108,
      "ǥż": 1109,
      "ǣL": 1110,
      "ǨK": 1111,
      "­": 1112,
      "ǣW": 1113,
      "ǉŒ": 1114,
      "§": 1115,
      "üǉō": 1116,
      "ǥ>": 1117,
      "ǉř": 1118,
      "ǣY": 1119,
      "Ǫ0": 1120,
      "ǧN": 1121,
      "­": 1122,
      "½": 1123,
      "ǉŇ": 1124,
      "ǦI": 1125,
      "¡ǉŉ": 1126,
      "ǉō": 1127,
      "­": 1128,
      "Ǌ_": 1129,
      "ǭ.": 1130,
      "Ǌ;": 1131,
      "ǋY": 1132,
      "Ǌ": 1133,
      "æǉō": 1134,
      "£": 1135,
      "Ǭ9": 1136,
      "ôǉō": 1137,
      "ǨN": 1138,
      "ǧK": 1139,
      "äǉō": 1140,
      "Ǭ7": 1141,
      "ǉř": 1142,
      "½": 1143,
      "Ɖú": 1144,
      "ǉŎ": 1145,
      "ǉŋ": 1146,
      "ǿQ": 1147,
      "ǦK": 1148,
      "ǏJ": 1149,
      "ǉŜ": 1150,
      "­": 1151,
      "£": 1152,
      "ǉř": 1153,
      "Ǌ?": 1154,
      "©": 1155,
      "ǧB": 1156,
      "ǏM": 1157,
      "§": 1158,
      "ǉś": 1159,
      "­": 1160,
      "ǉř": 1161,
      "Ǌ5": 1162,
      "©": 1163,
      " ǉō": 1164,
      "ǭ8": 1165,
      " ǉō": 1166,
      "ǉ": 1167,
      "ǺY": 1168,
      "ǧR": 1169,
      "ǧX": 1170,
      "Ǻ[": 1171,
      "ǋN": 1172,
      "¨": 1173,
      "¨": 1174,
      "Ǫ4": 1175,
      "Ǣ@": 1176,
      "ǉŏ": 1177,
      "ǉŉ": 1178,
      "Ɖê": 1179,
      "¢": 1180,
      "ǉņ": 1181,
      "ǉů": 1182,
      "©": 1183,
      "Ǩ?": 1184,
      "": 1185,
      "­": 1186,
      "ǉō": 1187,
      "Ǭ4": 1188,
      "ǣH": 1189,
      " ": 1190,
      "ú": 1191,
      "­": 1192,
      "ǉō": 1193,
      "ǨS": 1194,
      "ǭ-": 1195,
      "ǎO": 1196,
      "¦": 1197,
      "ǧ<": 1198,
      "ǉŉ": 1199,
      "ǉō": 1200,
      "ǤS": 1201,
      "ǤN": 1202,
      "ǢG": 1203,
      "ǋK": 1204,
      "ǺX": 1205,
      "ǉř": 1206,
      "ǉŠ": 1207,
      "ǉř": 1208,
      "Ǌ@": 1209,
      "ǦV": 1210,
      "ǉ": 1211,
      "ǉř": 1212,
      "ǎQ": 1213,
      "ǉų": 1214,
      "§": 1215,
      "ǋP": 1216,
      "ǦS": 1217,
      "ǜ`": 1218,
      "¦": 1219,
      "ǦR": 1220,
      "ǉ": 1221,
      "¡ǉō": 1222,
      "©": 1223,
      "¡ǣH": 1224,
      "ǜX": 1225,
      "ǭ/": 1226,
      "ǉŊ": 1227,
      "ǜY": 1228,
      "¡ǣN": 1229,
      "ǺL": 1230,
      "ǉŇ": 1231,
      "Ǩ:": 1232,
      "Ǌ": 1233,
      "ǋ[": 1234,
      "ǺJ": 1235,
      "£": 1236,
      "ǢX": 1237,
      "¨": 1238,
      "ǎM": 1239,
      " ǉŇ": 1240,
      "Ǭ5": 1241,
      "ǤK": 1242,
      "ǉō": 1243,
      "æǉŋ": 1244,
      "ǉō": 1245,
      "¥": 1246,
      "%ɒÞǉņ": 1247,
      "½": 1248,
      "ȋQ": 1249,
      "ǉŌ": 1250,
      "½": 1251,
      "ǊD": 1252,
      "ǉř": 1253,
      "ǣD": 1254,
      "ǥB": 1255,
      "ǉō": 1256,
      "ǏL": 1257,
      "¤": 1258,
      "ǺR": 1259,
      "Ǌ": 1260,
      "ǧD": 1261,
      "©": 1262,
      "ǭ1": 1263,
      "ǉř": 1264,
      "ǉŖ": 1265,
      "ǉŇ": 1266,
      "ǏT": 1267,
      "ǧ[": 1268,
      "Ɖò": 1269,
      "ǉş": 1270,
      "ǜV": 1271,
      "ǫA": 1272,
      "Ǌ": 1273,
      "ǉŨ": 1274,
      "ǉō": 1275,
      "ǉő": 1276,
      "ǉő": 1277,
      "ǧP": 1278,
      "ǉũ": 1279,
      "Ǭ0": 1280,
      "Ǻ]": 1281,
      "Ǫ8": 1282,
      "ȋT": 1283,
      "ǎT": 1284,
      "ǾQ": 1285,
      "ǉĿ": 1286,
      "¥": 1287,
      "ǋż": 1288,
      "¤": 1289,
      "Ǌ": 1290,
      "¡ǉő": 1291,
      "öǉō": 1292,
      "ǉř": 1293,
      "ǉŒ": 1294,
      "Ǣ>": 1295,
      "©": 1296,
      "¡ǣT": 1297,
      "Ǌ": 1298,
      "ǤP": 1299,
      "§": 1300,
      "¡ǣS": 1301,
      "ǋ]": 1302,
      "¨": 1303,
      "ǋI": 1304,
      "µ": 1305,
      "ǉő": 1306,
      "ǺH": 1307,
      "ǧ9": 1308,
      "Ǭ-": 1309,
      "ǫ+": 1310,
      "æ": 1311,
      "ǉŉǉō": 1312,
      "¢": 1313,
      "Ǌ": 1314,
      "öǉŋ": 1315,
      "ǉœ": 1316,
      "ǿT": 1317,
      "ǉō": 1318,
      "ǣ": 1319,
      "¢": 1320,
      "½": 1321,
      "ǺS": 1322,
      "ǣ[": 1323,
      "ǏR": 1324,
      "ǉŨ": 1325,
      "Ǳ2": 1326,
      "¦": 1327,
      "ǌO": 1328,
      "ȋO": 1329,
      "ǉŉ": 1330,
      "Ǫ;": 1331,
      "ǫC": 1332,
      "ǿV": 1333,
      " ": 1334,
      "Ǫ3": 1335,
      "½": 1336,
      "¦": 1337,
      "ǢU": 1338,
      "Ǫ6": 1339,
      "ǾT": 1340,
      "àǉř": 1341,
      "­": 1342,
      "Ǩ;": 1343,
      "ȓ[": 1344,
      "ǋE": 1345,
      "©": 1346,
      "ǦP": 1347,
      "ǉŵ": 1348,
      "ǉŨ": 1349,
      "ǥ[": 1350,
      "Ǌe": 1351,
      "ȓV": 1352,
      "ǣ": 1353,
      "ǾO": 1354,
      "§": 1355,
      "¡ǣR": 1356,
      "ǿO": 1357,
      "ǉŋ": 1358,
      "ǤX": 1359,
      "ê": 1360,
      "ǏN": 1361,
      "ǉŭ": 1362,
      "¦": 1363,
      "ö": 1364,
      "Ǥ[": 1365,
      "Ǩ=": 1366,
      "ǉŊ": 1367,
      "ò": 1368,
      "ǼO": 1369,
      "ǉŖ": 1370,
      "Ǣ[": 1371,
      "Ǳ7": 1372,
      "ǣ9": 1373,
      "ǉľ": 1374,
      "¨": 1375,
      "Ǣ<": 1376,
      "ǤY": 1377,
      "ǼQ": 1378,
      "Ǌ": 1379,
      "ǉŖ": 1380,
      "ǰ5": 1381,
      "": 1382,
      "ǢY": 1383,
      "­": 1384,
      "­": 1385,
      "¡ǉō": 1386,
      "ǫ@": 1387,
      "ǺU": 1388,
      "ǉŧ": 1389,
      "ǋC": 1390,
      "¦": 1391,
      "ǉņǉō": 1392,
      "ǉŚ": 1393,
      "Ǌc": 1394,
      "ǤC": 1395,
      "ö": 1396,
      "ǧU": 1397,
      "ǢA": 1398,
      "©": 1399,
      "¡ǉō": 1400,
      "Ǻb": 1401,
      "ȇT": 1402,
      "èǉř": 1403,
      "ǣ]": 1404,
      "ú": 1405,
      "ǏS": 1406,
      "¤": 1407,
      "ǉœ": 1408,
      "ǺP": 1409,
      "¡ǉŋ": 1410,
      "ǉņ": 1411,
      "ǉŨ": 1412,
      "ǣ": 1413,
      "ǉņ": 1414,
      "ǉŬ": 1415,
      "ǤE": 1416,
      "ǤF": 1417,
      "ǉő": 1418,
      "ǜb": 1419,
      "ǨR": 1420,
      "¡ǉō": 1421,
      "ǋU": 1422,
      "ǣB": 1423,
      "î": 1424,
      "¦": 1425,
      "ǎR": 1426,
      "ǏV": 1427,
      "ǉř": 1428,
      "ǜ_": 1429,
      "ǋF": 1430,
      "Ǻ^": 1431,
      "§": 1432,
      "Ɖâ": 1433,
      "£": 1434,
      "ǦD": 1435,
      "ǉō": 1436,
      "¡ǣE": 1437,
      "Ǌa": 1438,
      "ǉŉ": 1439,
      "¬": 1440,
      "¡ǉō¡": 1441,
      "ǉř": 1442,
      "Ǻ`": 1443,
      "~": 1444,
      "ȋR": 1445,
      "½": 1446,
      "Ǭ<": 1447,
      "­": 1448,
      "ǼM": 1449,
      "ǉŖ": 1450,
      "ȋV": 1451,
      "ǉŮ": 1452,
      "ǉŨ": 1453,
      "ǋA": 1454,
      "ǧY": 1455,
      "ǨP": 1456,
      "ǉũ": 1457,
      "ǉņ": 1458,
      "§": 1459,
      "ǨX": 1460,
      "ê": 1461,
      "ǣ": 1462,
      "ǉŰ": 1463,
      "ǺW": 1464,
      "Ǧ?": 1465,
      "ǣŻ": 1466,
      "ǥZ": 1467,
      "ǉņ": 1468,
      "ǕV": 1469,
      "§": 1470,
      "ǉō": 1471,
      "«": 1472,
      "¥": 1473,
      "ǣ": 1474,
      "Ǳ0": 1475,
      "ǉŔ": 1476,
      "ǉŨ": 1477,
      "Ǌd": 1478,
      "ò": 1479,
      "½": 1480,
      "ȈT": 1481,
      "ǫ,": 1482,
      "§": 1483,
      "": 1484,
      "ǉō": 1485,
      "ö": 1486,
      "Ǌ4": 1487,
      "ǜ^": 1488,
      "¦": 1489,
      "ȇY": 1490,
      "ǫ=": 1491,
      "Ǌ": 1492,
      "ȓT": 1493,
      "ǾV": 1494,
      "ǉŏ": 1495,
      "ǉš": 1496,
      "ǉř": 1497,
      "ǉņ": 1498,
      "ǎJ": 1499,
      "ȓY": 1500,
      "ǉŨ": 1501,
      "Ǣż": 1502,
      "ǋ<": 1503,
      "¡ǉŉ": 1504,
      "ǉř": 1505,
      "æ": 1506,
      "ǉŨ": 1507,
      "ǋG": 1508,
      "î": 1509,
      "ª": 1510,
      "â": 1511,
      "ǉŇ": 1512,
      "ǉŇǉō": 1513,
      "æ": 1514,
      "ǧ:": 1515,
      "¡": 1516,
      "ǧ]": 1517,
      "ǉŨ": 1518,
      "¦": 1519,
      "½": 1520,
      "øǉř": 1521,
      "ǭ=": 1522,
      "ǏH": 1523,
      "ǣ": 1524,
      "î": 1525,
      "ǉō": 1526,
      "Ǧ:": 1527,
      "ǭ@": 1528,
      "ǌM": 1529,
      "Ǌg": 1530,
      "æ": 1531,
      "¡æ": 1532,
      "§": 1533,
      "ȇV": 1534,
      "ǎV": 1535,
      "ǌT": 1536,
      "¨": 1537,
      "¡ö": 1538,
      "ǉō": 1539,
      "ǿS": 1540,
      "ǉņǉō": 1541,
      "Ǌ": 1542,
      "ǉō": 1543,
      "ǪA": 1544,
      "ǥ<": 1545,
      "¡ê": 1546,
      "Ǳ9": 1547,
      "±": 1548,
      "ǉŏ": 1549,
      "Ǳ<": 1550,
      "ǉŶ": 1551,
      "«": 1552,
      "ǎL": 1553,
      "Ǧ;": 1554,
      "¡ǉō": 1555,
      "ǧ;": 1556,
      "ǼJ": 1557,
      "ǣ": 1558,
      "ȈV": 1559,
      "ǣ": 1560,
      "ǌQ": 1561,
      "ǉŋ": 1562,
      "ǉō": 1563,
      "ú": 1564,
      "¨": 1565,
      "ǕT": 1566,
      "ǉũ": 1567,
      "ǊB": 1568,
      "â": 1569,
      "ǉŨ": 1570,
      "ǉŨ": 1571,
      "ǉŏ": 1572,
      "òǉŇ": 1573,
      "ǜZ": 1574,
      "ǥ9": 1575,
      "Ǳ4": 1576,
      "­": 1577,
      "ǏP": 1578,
      "ǰ<": 1579,
      "ǉŕ": 1580,
      "¡î": 1581,
      "ǧ?": 1582,
      "¥ǉŇ": 1583,
      "ê": 1584,
      "ǉũ": 1585,
      "ǎP": 1586,
      "ǉř": 1587,
      "ǉŇ": 1588,
      "ǉō": 1589,
      "ǎH": 1590,
      "ǜT": 1591,
      "ê": 1592,
      "ǰ7": 1593,
      "ǾS": 1594,
      "ö": 1595,
      "ǺN": 1596,
      "ǣ?": 1597,
      "î": 1598,
      "ǉŇǉō": 1599,
      "ǍQ": 1600,
      "Ǌ2": 1601,
      "¡ú": 1602,
      "ǋW": 1603,
      "ȓ]": 1604,
      "ǻQ": 1605,
      "«": 1606,
      "ǉũ": 1607,
      "ǼT": 1608,
      "ȋS": 1609,
      "ǎS": 1610,
      "ǤW": 1611,
      "ǉŗ": 1612,
      "ǥD": 1613,
      "¦": 1614,
      "ǉņ": 1615,
      "ǉř": 1616,
      "ȓX": 1617,
      "Ǩ[": 1618,
      "Ǌ=": 1619,
      "½": 1620,
      "ǥ]": 1621,
      "Ǭ6": 1622,
      "­": 1623,
      "ȈY": 1624,
      "ȇ[": 1625,
      "æ": 1626,
      "ðǉř": 1627,
      "ǉŉ": 1628,
      "ö": 1629,
      "ǤU": 1630,
      "ǉņ": 1631,
      "ǉŨ": 1632,
      "æ": 1633,
      "ǉŨ": 1634,
      "Ǌ": 1635,
      "î": 1636,
      "ǉō": 1637,
      "¡ǉō": 1638,
      "ǾX": 1639,
      "ǉŨ": 1640,
      "ôǉř": 1641,
      "ǿM": 1642,
      "î": 1643,
      "ǉũ": 1644,
      "ª": 1645,
      "ǉŉ": 1646,
      "ǌJ": 1647,
      "Ǭ1": 1648,
      "ǢW": 1649,
      "Ǌ": 1650,
      "æ": 1651,
      "ȋM": 1652,
      "ª": 1653,
      "ò": 1654,
      "ǕX": 1655,
      "äǉř": 1656,
      "üǉř": 1657,
      "î": 1658,
      "¡ò": 1659,
      "¨": 1660,
      "ö": 1661,
      "ǉŨ": 1662,
      "ǉň": 1663,
      "ú": 1664,
      "%ɒÞǉō": 1665,
      "¥ǉŇ": 1666,
      "æ": 1667,
      "¡ǣ": 1668,
      "¬": 1669,
      "ȈO": 1670,
      "ǰA": 1671,
      "ö": 1672,
      "ǉř": 1673,
      "§": 1674,
      "ǤG": 1675,
      "½": 1676,
      "Ǜ[": 1677,
      "ǣZ": 1678,
      "¢": 1679,
      "Ǳ3": 1680,
      "Ǭ.": 1681,
      "¨": 1682,
      "ǉņǉō": 1683,
      "¨": 1684,
      "ê": 1685,
      "ǺZ": 1686,
      "ǾR": 1687,
      "Ǭ/": 1688,
      "ȇX": 1689,
      "ö": 1690,
      "Ǜ]": 1691,
      "ǿL": 1692,
      "ò": 1693,
      "ǤI": 1694,
      "¡ǉō": 1695,
      "ǉũ": 1696,
      "ǻO": 1697,
      "æ": 1698,
      "¬": 1699,
      "¥ǉō": 1700,
      "Ǳ-": 1701,
      "Ǌ": 1702,
      "ǉũ": 1703,
      "î": 1704,
      "µ": 1705,
      "ê": 1706,
      "ǼL": 1707,
      "ö": 1708,
      "ǣ:": 1709,
      "ǧ=": 1710,
      "ǐL": 1711,
      "ǍO": 1712,
      "ǉŇ ": 1713,
      "ê": 1714,
      "ú": 1715,
      "Ǌ0": 1716,
      "ȈQ": 1717,
      "%ɏ": 1718,
      "¡": 1719,
      "«": 1720,
      "¡ǉő": 1721,
      "ǉń": 1722,
      "ǤA": 1723,
      "Ǫ=": 1724,
      "æ": 1725,
      "Ǳ:": 1726,
      "¡ǉō": 1727,
      "ǉũ": 1728,
      "ǋZ": 1729,
      "țT": 1730,
      "ǉũ": 1731,
      "ǦY": 1732,
      "Ǭ>": 1733,
      "ò": 1734,
      "«": 1735,
      "Ǫ.": 1736,
      "î": 1737,
      "ǾM": 1738,
      "ǿR": 1739,
      "ǨU": 1740,
      "ǫ?": 1741,
      "ǐO": 1742,
      " ": 1743,
      "ò": 1744,
      "ǉŦ": 1745,
      "â": 1746,
      "ǉō": 1747,
      "æ": 1748,
      "ǉŉ": 1749,
      "æ": 1750,
      "ǉũ": 1751,
      "ǉũ": 1752,
      "ǕY": 1753,
      "ǉũ": 1754,
      "î": 1755,
      "Ɖ": 1756,
      "§": 1757,
      "ǉņǉō": 1758,
      "¬": 1759,
      "ǉŇǉō": 1760,
      "țO": 1761,
      "%ɏÞ": 1762,
      "ȌM": 1763,
      "ǜd": 1764,
      "ǉŉ": 1765,
      "%ɒÞǫ5": 1766,
      "ª": 1767,
      "ǿX": 1768,
      "¡ǉŉ": 1769,
      "ǺK": 1770,
      "ú": 1771,
      "ǉŨ": 1772,
      "ǉņ": 1773,
      "ö": 1774,
      "ǏE": 1775,
      "ǼR": 1776,
      "¡ǣ": 1777,
      "ǏK": 1778,
      "Ǻ_": 1779,
      "¡ǉņ": 1780,
      "£": 1781,
      "ǛY": 1782,
      "ú": 1783,
      "üǉŉ": 1784,
      "ö": 1785,
      "ǨY": 1786,
      "©": 1787,
      "î": 1788,
      "ǋ>": 1789,
      "ǌV": 1790,
      "¡ǣ": 1791,
      "ǣ": 1792,
      "ǻM": 1793,
      "½": 1794,
      "ǥŻ": 1795,
      "¡ǉŇ": 1796,
      "ǻV": 1797,
      "î": 1798,
      "ö": 1799,
      "æ": 1800,
      "â": 1801,
      "¬": 1802,
      "ǰ:": 1803,
      "©": 1804,
      "¦": 1805,
      "¡ǉō": 1806,
      "": 1807,
      "ǉņ": 1808,
      "ǍV": 1809,
      "ǜa": 1810,
      "ò": 1811,
      "¡ǉŇ": 1812,
      "ǣ": 1813,
      "ǉņǉō": 1814,
      "¦": 1815,
      "ê": 1816,
      "ǉś": 1817,
      "î": 1818,
      " ǉŉ": 1819,
      "ǜ\\": 1820,
      "ö": 1821,
      "ǉŨ": 1822,
      "ǪC": 1823,
      "ǉņǉō": 1824,
      "ǉŉ": 1825,
      "ǣ;": 1826,
      "Ǫ?": 1827,
      "%ɒß": 1828,
      "ǉņ": 1829,
      "țQ": 1830,
      "ȌO": 1831,
      "ǉŨ": 1832,
      "ǉņ": 1833,
      "ǾU": 1834,
      "ȈR": 1835,
      "¡ǉō": 1836,
      "ǧW": 1837,
      "~¡": 1838,
      "¬": 1839,
      "ǉř": 1840,
      "ö": 1841,
      "ǛV": 1842,
      " ": 1843,
      "¡ǉŋ": 1844,
      "§": 1845,
      "¡ǉő": 1846,
      "¬": 1847,
      "Ǐż": 1848,
      "Ǣ]": 1849,
      "ǣ": 1850,
      "¬": 1851,
      "ê": 1852,
      "ǣ": 1853,
      "ǣ": 1854,
      "ǉņ": 1855,
      "¨": 1856,
      "ǉņǉō": 1857,
      "ìǉř": 1858,
      "%ɐ": 1859,
      "î": 1860,
      "ǉŢ": 1861,
      "ǉŋ": 1862,
      "ǭ?": 1863,
      "Í": 1864,
      "ǉŉ": 1865,
      "¡â": 1866,
      "": 1867,
      "¥ǉō": 1868,
      "½": 1869,
      "ò": 1870,
      "ǉŋ": 1871,
      "ú": 1872,
      "â": 1873,
      "¦": 1874,
      "ú": 1875,
      "ǉŇ": 1876,
      "«": 1877,
      "ǧZ": 1878,
      "½": 1879,
      "ǿN": 1880,
      "ǉŋ": 1881,
      " ǉŇ": 1882,
      "ú": 1883,
      "Ǻ\\": 1884,
      "ò": 1885,
      "ȇO": 1886,
      "¡": 1887,
      "ǉő": 1888,
      "ǭA": 1889,
      "ǍT": 1890,
      "ǜe": 1891,
      "țV": 1892,
      "ú": 1893,
      "ǎY": 1894,
      "ǉŇ": 1895,
      "ȓQ": 1896,
      "½": 1897,
      "ǉņ": 1898,
      "ǢB": 1899,
      "ǉŚ": 1900,
      "ú": 1901,
      "¥": 1902,
      "ǉř": 1903,
      "ǉņ": 1904,
      "ǼV": 1905,
      "¡ǉō": 1906,
      "¡ǣ": 1907,
      "ǋ`": 1908,
      "ȇR": 1909,
      "Ȥ": 1910,
      "ö": 1911,
      "ê": 1912,
      "ȈM": 1913,
      "ȓ`": 1914,
      "«": 1915,
      "ǉŋ": 1916,
      "ê": 1917,
      "ȋP": 1918,
      "ò": 1919,
      "ǉő": 1920,
      "ǏI": 1921,
      "ǾL": 1922,
      "ǾN": 1923,
      "ǉŨ": 1924,
      "ǭC": 1925,
      "æ": 1926,
      "ǉũ": 1927,
      " ǉŉ": 1928,
      "": 1929,
      "ǉŇ": 1930,
      "ǉŨ": 1931,
      "ò": 1932,
      "ǊŻ": 1933,
      "Ǌ8": 1934,
      "%ɐÞ": 1935,
      "«": 1936,
      "ǾP": 1937,
      "ǌR": 1938,
      "ǼH": 1939,
      "ö": 1940,
      "Ǧ7": 1941,
      "ê": 1942,
      "ê": 1943,
      "¥": 1944,
      "Ǫ@": 1945,
      "ǉŉǉō": 1946,
      "ǢD": 1947,
      "ȇQ": 1948,
      "¨": 1949,
      "ò": 1950,
      "½": 1951,
      "â": 1952,
      "¬": 1953,
      "ǉŇ": 1954,
      " ǉō": 1955,
      "ǉŨ": 1956,
      "ǉņ": 1957,
      "ǎN": 1958,
      "%ɒÞǫ2": 1959,
      "ª": 1960,
      "ǐQ": 1961,
      "ǦX": 1962,
      "Ǳ.": 1963,
      "¡ǣ": 1964,
      "ò": 1965,
      "â": 1966,
      "î": 1967,
      "â": 1968,
      " ǉō": 1969,
      "ǿU": 1970,
      " ǉō": 1971,
      "ǎK": 1972,
      "ǉņ": 1973,
      "ǉŇ": 1974,
      "ǉŇǉō": 1975,
      "ǏX": 1976,
      "Ǭ;": 1977,
      "ǤZ": 1978,
      "ǉŕ": 1979,
      "ê": 1980,
      "Ǻe": 1981,
      "ª": 1982,
      "Ǭ@": 1983,
      "ǉŇ": 1984,
      "ǻT": 1985,
      "¬": 1986,
      "ǑQ": 1987,
      "â": 1988,
      "ǥ?": 1989,
      "ǿY": 1990,
      "țR": 1991,
      "î": 1992,
      "ǉŇ": 1993,
      "¡ǉō": 1994,
      "ǌH": 1995,
      "ǉŇ": 1996,
      "ȇM": 1997,
      "æ": 1998,
      "ò": 1999,
      "ȂV": 2000,
      "§": 2001,
      "ú": 2002,
      "ǉũ": 2003,
      "ǉŤ": 2004,
      "ǉņ": 2005,
      "â": 2006,
      "æ": 2007,
      "­": 2008,
      "ǿJ": 2009,
      "â": 2010,
      "Ǩ]": 2011,
      "ȌT": 2012,
      "¬": 2013,
      "¤": 2014,
      "Ǌ3": 2015,
      "ǉŔ": 2016,
      "æ": 2017,
      "ǉŖ": 2018,
      "ò": 2019,
      "ȋL": 2020,
      "¡ê": 2021,
      "ê": 2022,
      "Ǫ1": 2023,
      "Ǥ]": 2024,
      "ȀV": 2025,
      "¡ǣ": 2026,
      "Ǧ[": 2027,
      " ǉō ": 2028,
      "ǰ>": 2029,
      "©": 2030,
      "": 2031,
      "ǉŇ": 2032,
      "ȀQ": 2033,
      "Ǌf": 2034,
      "ǾY": 2035,
      "ȇ]": 2036,
      "ȈX": 2037,
      "ǉŴ": 2038,
      "ȀO": 2039,
      "ª": 2040,
      "ö": 2041,
      "ǉŇ": 2042,
      "ǉŵ": 2043,
      "ȋX": 2044,
      "ǉŖ": 2045,
      "¥ǉŉ": 2046,
      "ú": 2047,
      "Ǌ": 2048,
      "ǛX": 2049,
      "Ǖ[": 2050,
      "ǋ:": 2051,
      "¦": 2052,
      "ǉŵ": 2053,
      "¤": 2054,
      "ǉŏ": 2055,
      "Ǥ>": 2056,
      "ǋ^": 2057,
      "ú": 2058,
      "Ǧ=": 2059,
      "¡ǣ": 2060,
      "ǑJ": 2061,
      "Ǭ:": 2062,
      "ȂT": 2063,
      " ǉō": 2064,
      "§": 2065,
      "¡ö": 2066,
      "ǉő": 2067,
      "ǎX": 2068,
      "ǛT": 2069,
      "¤": 2070,
      "ǻJ": 2071,
      "ȌQ": 2072,
      "ǉŖ": 2073,
      "¡ú": 2074,
      "ǾW": 2075,
      "­": 2076,
      "ǯ5": 2077,
      "ȋY": 2078,
      "ǉŵ": 2079,
      "ǉŋ": 2080,
      "«": 2081,
      "ǎU": 2082,
      "î": 2083,
      "Ǜ^": 2084,
      "ǉņ": 2085,
      "ȀT": 2086,
      "ø": 2087,
      "ǏU": 2088,
      "ǉř": 2089,
      "¦": 2090,
      "ǼS": 2091,
      "î": 2092,
      "ǰ.": 2093,
      "¨": 2094,
      "Ȉ[": 2095,
      "ǦU": 2096,
      "Ǭ3": 2097,
      "ǉŨ": 2098,
      "ǉŇ": 2099,
      "ǉő": 2100,
      "ò": 2101,
      "ö": 2102,
      "Ǧż": 2103,
      "ȤT": 2104,
      "ȇW": 2105,
      "ȂY": 2106,
      "ê": 2107,
      "ö": 2108,
      "ê": 2109,
      "¬": 2110,
      "æ": 2111,
      "ǉņ": 2112,
      "ǉō": 2113,
      "ª": 2114,
      "ǻR": 2115,
      "%ɒÞǫ7": 2116,
      "ǉŇǉō": 2117,
      "Ǻd": 2118,
      "ǉŵ": 2119,
      "ǥ\\": 2120,
      "ǉŖ": 2121,
      "ǏY": 2122,
      "æ": 2123,
      "«": 2124,
      "ª": 2125,
      "ǢŻ": 2126,
      "ǉŇǉō": 2127,
      "ú": 2128,
      " ǉō": 2129,
      "ǉũ": 2130,
      "¡ǣ": 2131,
      "Ǣ9": 2132,
      "â": 2133,
      "ǉ": 2134,
      "¡æ": 2135,
      "¡ǣ": 2136,
      "ǉŔ": 2137,
      "â": 2138,
      "ǋb": 2139,
      " ǉņ": 2140,
      "ǉŇ": 2141,
      "ì": 2142,
      "â": 2143,
      "ǏG": 2144,
      "ǉņ": 2145,
      "ȇ^": 2146,
      "¡ǉŉ": 2147,
      "ôǉŉ": 2148,
      "ǉŖ": 2149,
      "ú": 2150,
      "ǉũ": 2151,
      "ǺG": 2152,
      "ǺI": 2153,
      "ǐM": 2154,
      "ö": 2155,
      "ȜV": 2156,
      "ȋN": 2157,
      "Ǌi": 2158,
      "ǦW": 2159,
      "ȇ`": 2160,
      "¡î": 2161,
      " ǉő": 2162,
      "ǰ0": 2163,
      "ò": 2164,
      "ǉō": 2165,
      "±": 2166,
      "ȀR": 2167,
      "ȈJ": 2168,
      "Ǫ-": 2169,
      "ǉŘ": 2170,
      "ǕQ": 2171,
      "ǉŇ": 2172,
      "ǐV": 2173,
      "ǎW": 2174,
      "ȡQ": 2175,
      "ǉŋ": 2176,
      "ǐT": 2177,
      "î": 2178,
      "ǑO": 2179,
      "ȈW": 2180,
      "ȤV": 2181,
      "ǉŇ": 2182,
      "§": 2183,
      "Ɖä": 2184,
      "ǥ;": 2185,
      "¡ò": 2186,
      "ò": 2187,
      "æ": 2188,
      "Ȝ]": 2189,
      "ü": 2190,
      " ǉŇ": 2191,
      "ǿW": 2192,
      "ö": 2193,
      "î": 2194,
      "ǋ9": 2195,
      "àǉŨ": 2196,
      "¡ǣ": 2197,
      "ǉĿ": 2198,
      "½": 2199,
      "¨": 2200,
      "Ǣ?": 2201,
      "Ǳ8": 2202,
      "ǣ`": 2203,
      "ǰ9": 2204,
      "%ɒÞǫ0": 2205,
      "ǣ": 2206,
      "ȕV": 2207,
      "ǉŉ": 2208,
      "ȌJ": 2209,
      "ȕ]": 2210,
      "ǉŇ": 2211,
      "ǉŋ": 2212,
      "«": 2213,
      "ǚT": 2214,
      "ǼN": 2215,
      "Ȝ[": 2216,
      "Ǖ]": 2217,
      "ǑM": 2218,
      "ǚQ": 2219,
      "¡ǣ": 2220,
      "ǉņǉō": 2221,
      "ê": 2222,
      "ǺE": 2223,
      "ö": 2224,
      "ȋJ": 2225,
      "ǉŉ": 2226,
      "ǌL": 2227,
      "ǉŇ": 2228,
      "ǯ2": 2229,
      "ǉŇǉō": 2230,
      "ǰ3": 2231,
      "ǯ7": 2232,
      "ǋ@": 2233,
      "â": 2234,
      " ǉŉ": 2235,
      "ǉŏ": 2236,
      "Ǐ[": 2237,
      "±": 2238,
      "â": 2239,
      "ǚV": 2240,
      "ä": 2241,
      "ǣ^": 2242,
      "ȌR": 2243,
      "ǉŉ": 2244,
      "ǉŃ": 2245,
      "ǉŌ": 2246,
      "¡ǣ": 2247,
      "ȤQ": 2248,
      "«": 2249,
      "ǉņ": 2250,
      "ǢZ": 2251,
      "ǉŖ": 2252,
      "ǜW": 2253,
      "ǉŇ": 2254,
      "¦": 2255,
      "ǼP": 2256,
      "î": 2257,
      "ǉő": 2258,
      "ò": 2259,
      "ǉő": 2260,
      "æ": 2261,
      "²": 2262,
      "ǻL": 2263,
      "ǉŇ": 2264,
      "ê": 2265,
      "ǉņ": 2266,
      "ǉŇǉō": 2267,
      "ô": 2268,
      "æ": 2269,
      "ú": 2270,
      "ª": 2271,
      "ǉŉ": 2272,
      "Ǜ`": 2273,
      "ǉņǉō": 2274,
      "ǉŉ": 2275,
      "ª": 2276,
      "ȋU": 2277,
      "ǨZ": 2278,
      "ê": 2279,
      "ǿ[": 2280,
      "ȇS": 2281,
      "ȋ[": 2282,
      "µ": 2283,
      "ì": 2284,
      "ǫB": 2285,
      "µ": 2286,
      "ú": 2287,
      "Ǥż": 2288,
      "ǜg": 2289,
      "ǉũ": 2290,
      "ǉŖ": 2291,
      "ú": 2292,
      "Ǻc": 2293,
      "ì": 2294,
      "¬": 2295,
      "ǉŋ": 2296,
      "ȕ[": 2297,
      "ǉţ": 2298,
      "ǎ[": 2299,
      "ȓZ": 2300,
      "ȓO": 2301,
      "ä": 2302,
      "ü": 2303,
      "ȇP": 2304,
      "ê": 2305,
      "ǉũ": 2306,
      "ǉŜ": 2307,
      "µ": 2308,
      "ȓW": 2309,
      "ȋW": 2310,
      "ȳQ": 2311,
      "ø": 2312,
      "æ": 2313,
      "ǾJ": 2314,
      "Ǿ[": 2315,
      "ãǉō": 2316,
      "ȇU": 2317,
      "ð": 2318,
      "ǉŇ": 2319,
      "ǌ[": 2320,
      "Ǻa": 2321,
      "ǉŇ": 2322,
      "ǉŖ": 2323,
      "ȓ^": 2324,
      "ǉŖ": 2325,
      "ǉŵ": 2326,
      "ǉũ": 2327,
      "§": 2328,
      "ǉŵ": 2329,
      "¡ǉŖ": 2330,
      "Ǻg": 2331,
      "Ǌ": 2332,
      "ä": 2333,
      "ǉŇ": 2334,
      "ê": 2335,
      "ǉő": 2336,
      "ǍM": 2337,
      "țY": 2338,
      "ǋD": 2339,
      "ǍJ": 2340,
      "ǉŏ": 2341,
      "ǚ[": 2342,
      "ú": 2343,
      "ȃO": 2344,
      "ǉŊ": 2345,
      "ȀX": 2346,
      "ǉř": 2347,
      "ǉř": 2348,
      "â": 2349,
      "ǣ=": 2350,
      "æ": 2351,
      "¨": 2352,
      "ǉ": 2353,
      "ú": 2354,
      "ȡV": 2355,
      "£": 2356,
      "ǋ\\": 2357,
      "î": 2358,
      "¼": 2359,
      "ǉŖ": 2360,
      "ǺF": 2361,
      "ǉņ": 2362,
      "~": 2363,
      "ǉŇ": 2364,
      "¡ǉŏ": 2365,
      "Ǳ>": 2366,
      "ǜc": 2367,
      "î": 2368,
      "ǿP": 2369,
      "ǉņ": 2370,
      "ǉŨ": 2371,
      "Ȃ[": 2372,
      "Ȉ]": 2373,
      "¡ǉŇ": 2374,
      "¡ǉō": 2375,
      "¡ǉŖ": 2376,
      "ª": 2377,
      "Ǜb": 2378,
      "ä": 2379,
      "Ɗî": 2380,
      "ô": 2381,
      "ǻH": 2382,
      "ǉŉ": 2383,
      "üǉŋ": 2384,
      " ǉō": 2385,
      "ȞO": 2386,
      "ô": 2387,
      "ȓR": 2388,
      "Ǧ]": 2389,
      "ǚY": 2390,
      "ǥ=": 2391,
      "ǉő": 2392,
      "½": 2393,
      "Ǌ6": 2394,
      "â": 2395,
      "¹": 2396,
      "ǜż": 2397,
      "Ǳ1": 2398,
      "ö": 2399,
      "ǉņ": 2400,
      "ǉř": 2401,
      "ǉŨ": 2402,
      "ǏC": 2403,
      "ǉő": 2404,
      "Ǫ/": 2405,
      "£": 2406,
      "ǌS": 2407,
      "ǰ2": 2408,
      "ȡO": 2409,
      "¡ǉő¡": 2410,
      "ǉŨ": 2411,
      "ǉŏ": 2412,
      "ǣ\\": 2413,
      "ò": 2414,
      "ǫE": 2415,
      "ȜX": 2416,
      "ǋ5": 2417,
      "ö": 2418,
      "ǬC": 2419,
      "â": 2420,
      "ȌH": 2421,
      "ǉŋ": 2422,
      "ú": 2423,
      "ǼK": 2424,
      "ȑT": 2425,
      "ê": 2426,
      "Ǎ[": 2427,
      "ȆQ": 2428,
      "ǏW": 2429,
      "Ǭ8": 2430,
      "ǍL": 2431,
      "Í": 2432,
      "ǚX": 2433,
      "ǉŉ": 2434,
      "Ɖô": 2435,
      "Ɗê": 2436,
      "â": 2437,
      "ǉŇ": 2438,
      "ǉō": 2439,
      "¡â": 2440,
      "Ǌ": 2441,
      "¡ǉņ": 2442,
      "ǉŊ": 2443,
      "Ǌ.": 2444,
      "ǉņ": 2445,
      "țM": 2446,
      "ǉŵ": 2447,
      "ǻX": 2448,
      "ª": 2449,
      "ǻS": 2450,
      "±": 2451,
      "ǾZ": 2452,
      "ì": 2453,
      "Ý": 2454,
      "Ǧ5": 2455,
      "ǉō": 2456,
      "¡ǣ": 2457,
      "µ": 2458,
      "ȓS": 2459,
      "ǺC": 2460,
      "ǲX": 2461,
      "ȀS": 2462,
      "ðǉŨ": 2463,
      "©": 2464,
      "ǉŇ": 2465,
      "ȌV": 2466,
      "ǉŊ": 2467,
      "ǉņ": 2468,
      "«": 2469,
      "ǉŋǉō": 2470,
      "ǉ": 2471,
      "ǉő": 2472,
      "ǿZ": 2473,
      "ǉŇǉō": 2474,
      "ǻY": 2475,
      "ǉŇ": 2476,
      "ȃM": 2477,
      "ǲV": 2478,
      "ǉņ": 2479,
      "ǜS": 2480,
      "ò": 2481,
      "¨": 2482,
      " ǉņ": 2483,
      "ǜU": 2484,
      "ǌK": 2485,
      "ȓ_": 2486,
      "ǲT": 2487,
      "ǉņ": 2488,
      "î": 2489,
      "¬": 2490,
      "țX": 2491,
      "ǼY": 2492,
      "ǋe": 2493,
      "ǋŻ": 2494,
      "ȳJ": 2495,
      "ǉũ": 2496,
      "ǰ4": 2497,
      "ǉņ": 2498,
      "ǉ": 2499,
      "ǉŸ": 2500,
      "¡ǉō¡": 2501,
      "ǚ]": 2502,
      "ǉŏ": 2503,
      "ǉř": 2504,
      "ǉņ": 2505,
      "ä": 2506,
      "ǻN": 2507,
      "¼": 2508,
      "öǉň": 2509,
      "ȂW": 2510,
      "ǣżǣH": 2511,
      "ǐJ": 2512,
      "¦": 2513,
      "Ǽ[": 2514,
      "ǉŞ": 2515,
      "ȌP": 2516,
      "ǯ9": 2517,
      "ǜi": 2518,
      "ò": 2519,
      "±": 2520,
      "ǧ\\": 2521,
      "ǣżǣJ": 2522,
      "Ǩ`": 2523,
      "ð": 2524,
      "ô": 2525,
      "ǚO": 2526,
      "ǉŉǉō": 2527,
      "è": 2528,
      "ǰ-": 2529,
      "¬": 2530,
      "ȆT": 2531,
      "â": 2532,
      "µ": 2533,
      "ì": 2534,
      "óǉō": 2535,
      "Ǽż": 2536,
      "ú": 2537,
      "ǑL": 2538,
      "ǐ@": 2539,
      "țJ": 2540,
      "±": 2541,
      "½": 2542,
      "Ǌ": 2543,
      "ǌX": 2544,
      "ǉŇǉō": 2545,
      "ǉŨ": 2546,
      "ȇ\\": 2547,
      "£": 2548,
      "ä": 2549,
      "§": 2550,
      "ȇZ": 2551,
      "ǟV": 2552,
      "ì": 2553,
      "¡ǉō": 2554,
      "ø": 2555,
      "æǉň": 2556,
      "ȕX": 2557,
      "ǉŉ": 2558,
      "Ɖì": 2559,
      "°": 2560,
      "ǉ": 2561,
      "țU": 2562,
      "ǉŇǉŉ": 2563,
      "ö": 2564,
      "ǻ[": 2565,
      "ȡ[": 2566,
      "ȑV": 2567,
      "ǉŇǉō": 2568,
      "ǉŋ": 2569,
      "ǋ_": 2570,
      "Ȁ[": 2571,
      "ǉũ": 2572,
      "ǬA": 2573,
      "Ǣ;": 2574,
      "ǉ": 2575,
      "ä": 2576,
      "ä": 2577,
      "ê": 2578,
      "ǉř": 2579,
      "ǧ`": 2580,
      "ǉř": 2581,
      "ü": 2582,
      "ǉŹ": 2583,
      "ǧ_": 2584,
      "ä": 2585,
      "ú": 2586,
      "ǲQ": 2587,
      "ǰ6": 2588,
      "Ǌ": 2589,
      "ǉŉ": 2590,
      "ȜT": 2591,
      "¡ǉŏ": 2592,
      "ȡT": 2593,
      "ǉō": 2594,
      "ì": 2595,
      "ì": 2596,
      "ǻP": 2597,
      "ǉũ": 2598,
      "µ": 2599,
      "ô": 2600,
      "ț[": 2601,
      "¢": 2602,
      "ǉ": 2603,
      "ǎI": 2604,
      "ǰF": 2605,
      "ǉŵ": 2606,
      "µ": 2607,
      "æ": 2608,
      "¼": 2609,
      "ǟQ": 2610,
      "ȤO": 2611,
      "ȂX": 2612,
      "ȓb": 2613,
      "ǉţ": 2614,
      "êǉŇ": 2615,
      "ȤX": 2616,
      "î": 2617,
      " ǉő": 2618,
      "¼": 2619,
      "ðǉŉ": 2620,
      "ǑN": 2621,
      "ǉŨ": 2622,
      "ǣ": 2623,
      "ǦZ": 2624,
      "ò": 2625,
      " ǉŋ": 2626,
      "ǼX": 2627,
      "ȕT": 2628,
      "¼": 2629,
      "ü": 2630,
      "ǐS": 2631,
      "è": 2632,
      "ä": 2633,
      "ô": 2634,
      " ": 2635,
      "ǟO": 2636,
      "¡ǉŉ": 2637,
      " ǉō": 2638,
      "±": 2639,
      "ǑH": 2640,
      "ò": 2641,
      "ǉŉ": 2642,
      "¡ǉņ": 2643,
      "ö": 2644,
      "ȳL": 2645,
      "Ǻż": 2646,
      "ǉŨ": 2647,
      "ǋa": 2648,
      "ǉŇ": 2649,
      "ǯ.": 2650,
      "âǉő": 2651,
      "ȇ": 2652,
      "%Ɍ": 2653,
      "¡ǉŉ": 2654,
      "ǏF": 2655,
      "ǖQ": 2656,
      "ǥ:": 2657,
      "ȡ9": 2658,
      "ǉŭ": 2659,
      "ȆO": 2660,
      "ǌż": 2661,
      "ø": 2662,
      "¡ǉŇ": 2663,
      "ǛR": 2664,
      "ǋ7": 2665,
      "Ǎ]": 2666,
      "ǉŤ": 2667,
      "ȑY": 2668,
      "Ǌm": 2669,
      "¡ǉŇ": 2670,
      "ȌL": 2671,
      "ä": 2672,
      "ǼW": 2673,
      "ǜQ": 2674,
      "ȑ[": 2675,
      "¥ǉņ": 2676,
      "ǑT": 2677,
      "ö": 2678,
      "ò": 2679,
      "¤": 2680,
      "ǍX": 2681,
      "ǉņ": 2682,
      "ǉũ": 2683,
      " ê": 2684,
      "®": 2685,
      "ǉōê": 2686,
      "ǉŵ": 2687,
      "ȣO": 2688,
      "Ǜ_": 2689,
      "ô": 2690,
      "ȤR": 2691,
      "Ǌj": 2692,
      "ǛQ": 2693,
      "ǕZ": 2694,
      "ǉŇ": 2695,
      "Ǌh": 2696,
      "ì": 2697,
      " ǉō": 2698,
      "ǉŵ": 2699,
      "ǉŋ": 2700,
      "ȀM": 2701,
      "âǉŏ": 2702,
      "ǉŢ": 2703,
      "ǉũ": 2704,
      "ǉŋ": 2705,
      "áǉō": 2706,
      "æ": 2707,
      "ǉņǉō": 2708,
      "ȀU": 2709,
      "ì": 2710,
      "Ɖü": 2711,
      "ǟT": 2712,
      "ȚV": 2713,
      "Ǩ7": 2714,
      "ǉŨ": 2715,
      "ǉő": 2716,
      "ǕR": 2717,
      "ǍS": 2718,
      "ì": 2719,
      "ȚX": 2720,
      "ǰ@": 2721,
      "ô": 2722,
      "ȣQ": 2723,
      "ǉŴ": 2724,
      "ǰJ": 2725,
      "î": 2726,
      "ǉŮ": 2727,
      "Ɗö": 2728,
      " ö": 2729,
      "ô": 2730,
      "ǨJ¡": 2731,
      "ǍR": 2732,
      "¢": 2733,
      "ê": 2734,
      "ǉŖ": 2735,
      "â": 2736,
      "%ɌÞ": 2737,
      "ü": 2738,
      "ǉŨ": 2739,
      "ȡX": 2740,
      "ȀY": 2741,
      "ü": 2742,
      "ǉũ": 2743,
      "â": 2744,
      "¼": 2745,
      "ǣJ¡": 2746,
      "ȕY": 2747,
      "ǉų": 2748,
      "ǉŉ": 2749,
      "ǉő": 2750,
      "ǉŉ": 2751,
      "ǉŋ": 2752,
      "Ɗú": 2753,
      "%ɒÞǭ5": 2754,
      "¼": 2755,
      "Ɗæ": 2756,
      "ȂO": 2757,
      "¡ö": 2758,
      " î": 2759,
      "ê": 2760,
      "ǼU": 2761,
      "Ǩ8": 2762,
      "æ": 2763,
      "®": 2764,
      "ǉŉ": 2765,
      "ǰO": 2766,
      "ȇJ": 2767,
      "ǍH": 2768,
      "ǰM": 2769,
      "øǉŉ": 2770,
      "ô": 2771,
      "ǥ_": 2772,
      "ǕS": 2773,
      "ǉŵ": 2774,
      "¬": 2775,
      "ǉő": 2776,
      "Ǩb": 2777,
      "ǉŵ": 2778,
      "ǉů": 2779,
      "ǉŇ": 2780,
      "ȤM": 2781,
      "ǉŋ": 2782,
      "ü": 2783,
      "ä": 2784,
      "ì": 2785,
      "ê": 2786,
      "ä": 2787,
      "ǉŐ": 2788,
      "Å": 2789,
      "ǑR": 2790,
      "éǉō": 2791,
      "Ǌ1": 2792,
      "ǑE": 2793,
      "ȡY": 2794,
      "ǉŏ": 2795,
      "ȂR": 2796,
      "ǉŉ": 2797,
      "Ƿ": 2798,
      "ǉŵ": 2799,
      "Ƿ": 2800,
      "ǣ7": 2801,
      "ǉŏ": 2802,
      "ǧ^": 2803,
      "ǉŏ": 2804,
      "ȡM": 2805,
      "¨": 2806,
      "¥ǉŋ": 2807,
      "Ǌ": 2808,
      "æ": 2809,
      "ǋ?": 2810,
      "ñǉō": 2811,
      "ü": 2812,
      "ǯ:": 2813,
      "ȜY": 2814,
      "ì": 2815,
      "¡ú": 2816,
      "ȂQ": 2817,
      "¡æ": 2818,
      "ǭE": 2819,
      "ȡR": 2820,
      "ǻK": 2821,
      "ȕ`": 2822,
      "ǣQ ": 2823,
      "¢ǉō": 2824,
      "ȋK": 2825,
      "ê": 2826,
      "ǐH": 2827,
      "±": 2828,
      "Ǳ6": 2829,
      "ǉŖ": 2830,
      "ǉŖ": 2831,
      "ǉő": 2832,
      "«": 2833,
      " ": 2834,
      "ǌN": 2835,
      "ǉš": 2836,
      "±": 2837,
      "ȣM": 2838,
      "ǉŊ": 2839,
      "Ǳ/": 2840,
      "ü": 2841,
      "ú": 2842,
      "ǨE¡": 2843,
      "ǍN": 2844,
      "®": 2845,
      "ǉŇ": 2846,
      "ǉņǉō": 2847,
      "ǨW": 2848,
      "ǌY": 2849,
      "ü": 2850,
      "ǺA": 2851,
      "ëǉō": 2852,
      "ǣ5": 2853,
      "%ɒÞǫ4": 2854,
      "¡ǉŇ": 2855,
      "ǉŖ": 2856,
      "¡ǧE": 2857,
      "¡ǉŉ": 2858,
      "ǉũ": 2859,
      "ǎż": 2860,
      "ǌP": 2861,
      "ǕO": 2862,
      "ǉōú": 2863,
      "ǉŖ": 2864,
      "ì": 2865,
      "ǉŖ": 2866,
      "ǉ": 2867,
      "ǉř": 2868,
      "ǉņǉō": 2869,
      " ǉō": 2870,
      "èǉŨ": 2871,
      "¡ǉŋ": 2872,
      "ǎ]": 2873,
      "à": 2874,
      "ǉŋ": 2875,
      "¡ǣQ": 2876,
      "Í": 2877,
      "ǜR": 2878,
      "ȉO": 2879,
      "ǉŏ": 2880,
      "ǉŞ": 2881,
      "ǉŞ": 2882,
      "µ": 2883,
      "ȆV": 2884,
      "©": 2885,
      "Ǳ+": 2886,
      "%ɒÞǫ.": 2887,
      "ǨC¡": 2888,
      "ǉř": 2889,
      "ä": 2890,
      "ȡL": 2891,
      " ": 2892,
      " ǉŉ": 2893,
      "ò": 2894,
      "ǉŉ": 2895,
      "ȋ]": 2896,
      "ä": 2897,
      "ª": 2898,
      "«": 2899,
      "Í": 2900,
      "Í": 2901,
      "ǌ]": 2902,
      "µ": 2903,
      "ȇH": 2904,
      "Ǥ`": 2905,
      "¥ǉŉ": 2906,
      "¡ǉŇ": 2907,
      "ǉŋ": 2908,
      "ö": 2909,
      "ǉũ": 2910,
      "ȡJ": 2911,
      "ǛZ": 2912,
      "ȌK": 2913,
      "£ǉō": 2914,
      "¡ǉŉ": 2915,
      "ô": 2916,
      "ǣQ": 2917,
      "Ǌl": 2918,
      "ǉņ": 2919,
      "ǉů": 2920,
      "ǉŵ": 2921,
      "¦": 2922,
      "ùǉō": 2923,
      "ȓM": 2924,
      "%ɒÞǭ7": 2925,
      "ǉŵ": 2926,
      "ô": 2927,
      "ǉũ": 2928,
      "ü": 2929,
      "Ǜż": 2930,
      "Ȝ_": 2931,
      "Ƿ": 2932,
      "¥ú": 2933,
      "ȀW": 2934,
      "ȑX": 2935,
      "¡ǉŉ": 2936,
      "ǿH": 2937,
      "ǛW": 2938,
      "«": 2939,
      "ǜf": 2940,
      "ǻ]": 2941,
      "à": 2942,
      "Í": 2943,
      "ǰ8": 2944,
      "ȃK": 2945,
      "ü": 2946,
      "ǉō": 2947,
      "Ǡ[": 2948,
      "ǉō": 2949,
      "µ": 2950,
      " æ": 2951,
      "ú": 2952,
      "¥": 2953,
      "ǐX": 2954,
      "ǉņ": 2955,
      "ț9": 2956,
      " ǉō": 2957,
      "ǻU": 2958,
      "ú": 2959,
      "ǉŨ": 2960,
      "~¥": 2961,
      "ìǉŉ": 2962,
      "ǜO": 2963,
      "ǻW": 2964,
      "î": 2965,
      "ȈS": 2966,
      "%ɒà": 2967,
      "ȃH": 2968,
      "ǉň": 2969,
      "țH": 2970,
      "ȇL": 2971,
      "­": 2972,
      "è": 2973,
      " ú": 2974,
      " ǉō": 2975,
      "Ǧ6": 2976,
      "Ǻ<": 2977,
      "ǖX": 2978,
      "ǠX": 2979,
      "¡ê": 2980,
      "ǎ\\": 2981,
      "»": 2982,
      "ǉŏ": 2983,
      "ð": 2984,
      "ô": 2985,
      "±": 2986,
      "ǉŉ": 2987,
      "î": 2988,
      "ǉŏ": 2989,
      "ǎE": 2990,
      "ǰH": 2991,
      "țZ": 2992,
      "î": 2993,
      "ǉņ": 2994,
      "ȈH": 2995,
      "ǠV": 2996,
      "±": 2997,
      "ȓ\\": 2998,
      "ǣ": 2999,
      "¥ǉō": 3000,
      "Ǧ2": 3001,
      "Ǐ]": 3002,
      "ø": 3003,
      "ô": 3004,
      "ǠT": 3005,
      "Ǧ`": 3006,
      "Ǽ^": 3007,
      "Ɖ": 3008,
      "ǉņǉō": 3009,
      "ȇK": 3010,
      "ǉŇ": 3011,
      "¯": 3012,
      "ì": 3013,
      "ȃP": 3014,
      "¢ǉŉ": 3015,
      "ǤB": 3016,
      "æ": 3017,
      "ǾH": 3018,
      "ǿ]": 3019,
      "¤": 3020,
      "ü": 3021,
      "Ǥ?": 3022,
      "ª": 3023,
      "ǍY": 3024,
      "¼": 3025,
      "¡ǧJ": 3026,
      "ǉũ": 3027,
      "¹": 3028,
      "ȇ_": 3029,
      " ǉņ": 3030,
      "ȣJ": 3031,
      "ö": 3032,
      "ò": 3033,
      "ö": 3034,
      "Ǻi": 3035,
      "ǠQ": 3036,
      "æ": 3037,
      "Ǒ>": 3038,
      "ȞQ": 3039,
      "¢": 3040,
      "ǑV": 3041,
      "Ǥ^": 3042,
      "¡î": 3043,
      "ǚM": 3044,
      "%ɒÞǫ9": 3045,
      "¡ǉŉ": 3046,
      "ª": 3047,
      "Ǯ5": 3048,
      "ǖV": 3049,
      "ǏZ": 3050,
      "ǉŊ": 3051,
      "ǉō": 3052,
      "ǰ1": 3053,
      "¡ǉő": 3054,
      "ǉņǉŉ": 3055,
      "â": 3056,
      "ǟR": 3057,
      "ä": 3058,
      "¡ǉŇ": 3059,
      "Ý": 3060,
      "ȆM": 3061,
      "Ǜg": 3062,
      "ȡ]": 3063,
      "æ": 3064,
      "ǚR": 3065,
      "ǌW": 3066,
      "¡ǉņ": 3067,
      "ǫ)": 3068,
      "ȡS": 3069,
      "ǫF": 3070,
      "ǉŨ": 3071,
      "ǋd": 3072,
      "Ȃ]": 3073,
      "%ɒÞǭ2": 3074,
      "ǉŊ": 3075,
      "î": 3076,
      "ǚJ": 3077,
      "ǉţ": 3078,
      "ø": 3079,
      "¡ǉō": 3080,
      "Ȃ\\": 3081,
      "Ǿ]": 3082,
      "ȋH": 3083,
      "ǉ": 3084,
      "ǐY": 3085,
      "î": 3086,
      "ǟX": 3087,
      "ǚ`": 3088,
      "ǑC": 3089,
      "ǉŖ": 3090,
      "°": 3091,
      "Ɗò": 3092,
      "ȚT": 3093,
      "¡ò": 3094,
      " æ": 3095,
      "Ǯ-": 3096,
      "¡ǉř": 3097,
      "Ǩ5": 3098,
      "ǻb": 3099,
      "è": 3100,
      "ǭ+": 3101,
      "æ": 3102,
      "ǖT": 3103,
      "ȃT": 3104,
      "ǉő": 3105,
      "²": 3106,
      "ǉś": 3107,
      "ð": 3108,
      "ǾK": 3109,
      "ì": 3110,
      "ǉŏ": 3111,
      "¼": 3112,
      "ǧb": 3113,
      "ǬE": 3114,
      "¬": 3115,
      "¡ǉũ": 3116,
      "ǉř": 3117,
      "ǉŖ": 3118,
      "țS": 3119,
      "%ɒÞǫ3": 3120,
      "ü": 3121,
      "¯": 3122,
      "ä": 3123,
      "ǉōǉŖ": 3124,
      "ǻ`": 3125,
      "ǉŋ": 3126,
      " ǉŏ": 3127,
      "¢ǉō": 3128,
      "ǋB": 3129,
      "»": 3130,
      "ǚż": 3131,
      "¥ê": 3132,
      "§": 3133,
      "âǉř": 3134,
      "ȀN": 3135,
      "ǐR": 3136,
      "Ǯ2": 3137,
      "ǉŉ": 3138,
      "ö": 3139,
      "²": 3140,
      "ò": 3141,
      "ð": 3142,
      "ǉņ": 3143,
      "Ǻj": 3144,
      "ȤL": 3145,
      "»": 3146,
      "«": 3147,
      "ǉŵ": 3148,
      "ì": 3149,
      "ǉũ": 3150,
      "»": 3151,
      "ǉŇ": 3152,
      "®": 3153,
      "¡ǉŇ": 3154,
      "ǼF": 3155,
      "ǉř": 3156,
      "è": 3157,
      "ûǉō": 3158,
      "ø": 3159,
      "ȃJ": 3160,
      "µ": 3161,
      "ǎZ": 3162,
      "¥â": 3163,
      "ț]": 3164,
      "»": 3165,
      "ǭ,": 3166,
      " ǉŋ": 3167,
      "ª": 3168,
      "Í": 3169,
      "ǉŋ": 3170,
      "ǉŬ": 3171,
      "ǫ(": 3172,
      "ȈU": 3173,
      "ǋ0": 3174,
      "ȃQ": 3175,
      "Ǚ": 3176,
      "Ǜ\\": 3177,
      "è": 3178,
      "ô": 3179,
      "ǉŵ": 3180,
      "¡ǉŇ": 3181,
      "ê": 3182,
      "ȌY": 3183,
      "Ǳ=": 3184,
      "ú": 3185,
      "â": 3186,
      "ȕQ": 3187,
      "Ȁ]": 3188,
      "ȌS": 3189,
      "è": 3190,
      "ȜZ": 3191,
      "ȀZ": 3192,
      "è": 3193,
      "ǉŇ": 3194,
      "°": 3195,
      "ǉő": 3196,
      "úǉő": 3197,
      "Ǥ@": 3198,
      "±": 3199,
      "ǐE": 3200,
      "ǖO": 3201,
      "ȂU": 3202,
      "ǉŸ": 3203,
      "ȕ_": 3204,
      "ǉŏ": 3205,
      "ǉŢ": 3206,
      "¡": 3207,
      "ȣL": 3208,
      "Ǥ\\": 3209,
      "Ǌ-": 3210,
      "î": 3211,
      "ǣJ": 3212,
      "ô": 3213,
      " ǉř": 3214,
      "ú": 3215,
      "¯": 3216,
      " ǉŋ": 3217,
      "ǲ]": 3218,
      "ǉ": 3219,
      "±": 3220,
      "øǉŨ": 3221,
      "ä": 3222,
      "ǨL¡": 3223,
      "ǉŋ": 3224,
      "àǉŏ": 3225,
      "¡ǉŇ¡": 3226,
      "ǉŋ": 3227,
      "©": 3228,
      "»": 3229,
      "ǉŵ": 3230,
      "ǐC": 3231,
      "ǉņ": 3232,
      "ǜM": 3233,
      "Í": 3234,
      "ȈF": 3235,
      "ǚZ": 3236,
      "Ǯ4": 3237,
      "è": 3238,
      "ǢJ¡": 3239,
      "Ǣ=": 3240,
      "½": 3241,
      "ȤJ": 3242,
      "¢ǉō": 3243,
      "Ǖ^": 3244,
      "Ǜe": 3245,
      "țL": 3246,
      "ǉř": 3247,
      "ǑS": 3248,
      "ȇN": 3249,
      " î": 3250,
      "ǉŇ": 3251,
      "ǉŉǉō": 3252,
      "Ɗâ": 3253,
      "ǚW": 3254,
      "¥î": 3255,
      "ȇb": 3256,
      "è": 3257,
      "ǥżǥH": 3258,
      "Ǯ7": 3259,
      "¼": 3260,
      "ȳH": 3261,
      "ǧż": 3262,
      "òǉŏ": 3263,
      "ǉŏ": 3264,
      "ê": 3265,
      "ȀP": 3266,
      "ð": 3267,
      "ǉŇ": 3268,
      "®": 3269,
      "Ǯ0": 3270,
      "¡â": 3271,
      "ǛU": 3272,
      "ǉţ": 3273,
      "ǉŏ": 3274,
      "¡": 3275,
      "ȈL": 3276,
      "Ɖ": 3277,
      "â": 3278,
      "ü": 3279,
      "ǉŘ": 3280,
      "ǨO¡": 3281,
      "ȉT": 3282,
      "»": 3283,
      "ú": 3284,
      "ǲY": 3285,
      "ǌC": 3286,
      "ǼI": 3287,
      "ȓU": 3288,
      "%ɒÞǫ-": 3289,
      "ǉō": 3290,
      "ǌ_": 3291,
      "Ǩ_": 3292,
      "ǐL": 3293,
      "ȣT": 3294,
      "Ǎż": 3295,
      "ǉţ": 3296,
      "¡ǣ": 3297,
      "ǎ>": 3298,
      "ȃR": 3299,
      "ø": 3300,
      "%ɋ": 3301,
      "ǉŋ": 3302,
      "%ɒâ": 3303,
      "ǉŇ": 3304,
      "µ": 3305,
      "¡ǣO": 3306,
      "ö": 3307,
      "ǱA": 3308,
      "è": 3309,
      "ǉŏ": 3310,
      "ð": 3311,
      "¥ǉō": 3312,
      "ǉŢ": 3313,
      "·": 3314,
      "ø": 3315,
      "ǉš": 3316,
      "ȌX": 3317,
      "ú": 3318,
      "ǍZ": 3319,
      "%ɋÞ": 3320,
      "­": 3321,
      "ǷV": 3322,
      "ǉš": 3323,
      "ȳM": 3324,
      "ô": 3325,
      "¬": 3326,
      "¹": 3327,
      "»": 3328,
      "ȂM": 3329,
      "ǉŋǉō": 3330,
      "ǫV": 3331,
      "ǉŘ": 3332,
      "ǟS": 3333,
      " ǉŇ": 3334,
      "ò": 3335,
      "ǉś": 3336,
      "ȳN": 3337,
      "ú": 3338,
      "¥æ": 3339,
      "ǋ2": 3340,
      "ȂZ": 3341,
      "ê": 3342,
      "ǉũ": 3343,
      "ǪE": 3344,
      "ǯ<": 3345,
      "ø": 3346,
      "ǉŋ": 3347,
      "ǛO": 3348,
      "ǉő": 3349,
      "ǎ^": 3350,
      "ǕW": 3351,
      "¡ê": 3352,
      "ǢH¡": 3353,
      "¡ǧH": 3354,
      "ȂS": 3355,
      "ǉŭ": 3356,
      "Í": 3357,
      "ø": 3358,
      "ǲ[": 3359,
      "ȆR": 3360,
      "ǭB": 3361,
      "ǐ[": 3362,
      "ú": 3363,
      "ǰQ": 3364,
      "ȤY": 3365,
      "ǉŏ": 3366,
      "ò": 3367,
      "ü": 3368,
      "Ǿ\\": 3369,
      "ȤS": 3370,
      "ǉň": 3371,
      " ö": 3372,
      "ü": 3373,
      "ǍE": 3374,
      "ǉŖ": 3375,
      "¹": 3376,
      "ǰC": 3377,
      "Ȉ\\": 3378,
      "ä": 3379,
      "Ȉż": 3380,
      "ǉľ": 3381,
      "ǉŋǉō": 3382,
      "ȌN": 3383,
      "ǜh": 3384,
      " ǉŏ": 3385,
      " ǉō": 3386,
      "ú": 3387,
      "ǚa": 3388,
      "®": 3389,
      "è": 3390,
      "ǉř": 3391,
      "ț^": 3392,
      "ǚb": 3393,
      "¡ǉŉ": 3394,
      "%ɒÞǪ7": 3395,
      "ǉŧ": 3396,
      "ǫQ": 3397,
      "ǉŢ": 3398,
      "ǫH": 3399,
      "®": 3400,
      "»": 3401,
      "ȉV": 3402,
      "Ƌæ": 3403,
      "ǉŵ": 3404,
      "%ɒÞǪ5": 3405,
      "¡î": 3406,
      "Ǜd": 3407,
      "Ǽ]": 3408,
      "ȑO": 3409,
      "¡ö": 3410,
      "ǉŨ": 3411,
      "ǌE": 3412,
      " ǉŉ": 3413,
      "â": 3414,
      "ǉő": 3415,
      "ǉŊ": 3416,
      "ì": 3417,
      "ǉŉ": 3418,
      "ȳO": 3419,
      "ǎ_": 3420,
      "î": 3421,
      "Í": 3422,
      "Ǥ<": 3423,
      "ð": 3424,
      "î": 3425,
      "¤": 3426,
      "ȑ^": 3427,
      "ð": 3428,
      "ö": 3429,
      "Ɖ": 3430,
      "ȑW": 3431,
      "ǉō": 3432,
      "Ƌî": 3433,
      "ȆX": 3434,
      "ǉź": 3435,
      "ǉŇ": 3436,
      "ǚd": 3437,
      "ǝV": 3438,
      "ú": 3439,
      "ǉő": 3440,
      "ø": 3441,
      "â": 3442,
      "ǻZ": 3443,
      "ò": 3444,
      "ö": 3445,
      "ǉŵ": 3446,
      "ǉŜ": 3447,
      "±": 3448,
      "ǌF": 3449,
      "¥ò": 3450,
      "ǚ^": 3451,
      "ǉš": 3452,
      "ǉš": 3453,
      "°": 3454,
      "ǨG¡": 3455,
      "ǽM": 3456,
      "ǉŗ": 3457,
      "î": 3458,
      "ȈP": 3459,
      "ê": 3460,
      "¡ǉŇ": 3461,
      "ǥ`": 3462,
      "ǐK": 3463,
      "Ȥ[": 3464,
      "Ǩ@¡": 3465,
      "ǋ;": 3466,
      "ǣQ": 3467,
      "ü": 3468,
      "Ǻ>": 3469,
      "ǉŊ": 3470,
      "ǟY": 3471,
      "ȓP": 3472,
      "æ": 3473,
      "Ǧ_": 3474,
      "¡ê": 3475,
      "ê": 3476,
      "ǚ\\": 3477,
      "¡æ": 3478,
      "Í": 3479,
      "ǢQ¡": 3480,
      "ǉŉ": 3481,
      "ǣO": 3482,
      "ø": 3483,
      "ǎF": 3484,
      "Ǩ^": 3485,
      "¡ǉŔ": 3486,
      "¢ǉŇ": 3487,
      "ǪF": 3488,
      "ǣH": 3489,
      "ǉň": 3490,
      "¡ǧG": 3491,
      "¨": 3492,
      "ǉŶ": 3493,
      "¥": 3494,
      "ǉŢ": 3495,
      "ǨH¡": 3496,
      "ê": 3497,
      "ǣM": 3498,
      "ǉř": 3499,
      "ǑK": 3500,
      "ǹA": 3501,
      "Ǻf": 3502,
      " ǉņ": 3503,
      "ǉ": 3504,
      "ǏŻ": 3505,
      "ȟV": 3506,
      "ǉŋ": 3507,
      "ǌU": 3508,
      "ȟY": 3509,
      "ǿK": 3510,
      "ú": 3511,
      "ð": 3512,
      "ȋZ": 3513,
      "ǉŚ": 3514,
      "ê": 3515,
      "î": 3516,
      "ǉŋ": 3517,
      "ǫY": 3518,
      "â": 3519,
      "àǉũ": 3520,
      "Ȍ[": 3521,
      "æ": 3522,
      "ȚQ": 3523,
      "¡ǉŇ": 3524,
      "Ǖ\\": 3525,
      "¡ü": 3526,
      " ǉō": 3527,
      "ǧ7": 3528,
      "ǉ": 3529,
      "ȣR": 3530,
      "â": 3531,
      "ǉŢ": 3532,
      "¡æ": 3533,
      "æ": 3534,
      "ê": 3535,
      "Ǯ9": 3536,
      "ö": 3537,
      "ǰR": 3538,
      "ø": 3539,
      "ä": 3540,
      "ǉŋ": 3541,
      "ô": 3542,
      "¡ǣ": 3543,
      "ǣJ": 3544,
      "ǉŋ": 3545,
      "»": 3546,
      "ǻ^": 3547,
      "ǉŏ": 3548,
      "ð": 3549,
      "ǥżǥJ": 3550,
      "ǐW": 3551,
      "ø": 3552,
      " ú": 3553,
      "ǉŋǉō": 3554,
      "¡ú": 3555,
      "¡ú": 3556,
      "ȣN": 3557,
      "Ǭ=": 3558,
      "ȈK": 3559,
      "Ǒ<": 3560,
      "Ȥ>": 3561,
      "¥ǉŇ": 3562,
      "¥ǉő": 3563,
      "ǉő": 3564,
      "ȑ`": 3565,
      "ȀL": 3566,
      "¡ǉŨ": 3567,
      "¡ǉō": 3568,
      "ǿI": 3569,
      "ǖ[": 3570,
      "æ": 3571,
      "ǉŵ": 3572,
      "ǎ<": 3573,
      "ǉř": 3574,
      "ȕZ": 3575,
      "ǉŨ": 3576,
      "ȝ": 3577,
      "Ɖð": 3578,
      "țN": 3579,
      " æ": 3580,
      " ǉŇ": 3581,
      "ǉņǉō": 3582,
      "ò": 3583,
      "¡ì": 3584,
      "ì": 3585,
      "¯": 3586,
      "à": 3587,
      "ö": 3588,
      "ȌE": 3589,
      " ò": 3590,
      "ț\\": 3591,
      "¡ǣM": 3592,
      "æ": 3593,
      "î": 3594,
      "ǷT": 3595,
      "~ ": 3596,
      "ȉM": 3597,
      "¡ǣJ": 3598,
      "ǣżǣM": 3599,
      "®": 3600,
      "ǉņǉŉ": 3601,
      "½": 3602,
      "ȃL": 3603,
      "ò": 3604,
      "î": 3605,
      "ǎG": 3606,
      "¡ô": 3607,
      "ǰ;": 3608,
      "ð": 3609,
      "ǉũ": 3610,
      "Ǯ6": 3611,
      " ǣQ ": 3612,
      "¡ö": 3613,
      "ǉŞ": 3614,
      "ǉť": 3615,
      "¡ǣH": 3616,
      "ǉŔ": 3617,
      "ȡP": 3618,
      "ǉŉ": 3619,
      "ȣH": 3620,
      "ǉţ": 3621,
      "¡ǨH": 3622,
      "ț`": 3623,
      "Ƿ]": 3624,
      "ǣM": 3625,
      "ǰE": 3626,
      "ț@": 3627,
      "ǤŻ": 3628,
      "¡ǉņ": 3629,
      "ǉŉ": 3630,
      "¡ǉō": 3631,
      "Ƌö": 3632,
      "ø": 3633,
      "¥ö": 3634,
      "â": 3635,
      "ȕW": 3636,
      "Ƌú": 3637,
      "Ǣ^": 3638,
      "ǺŻ": 3639,
      "µ": 3640,
      "ǉŔ": 3641,
      "ȤF": 3642,
      "ö": 3643,
      "ǉŉǉō": 3644,
      "ǉř": 3645,
      "®": 3646,
      "ǉř": 3647,
      "ǋ=": 3648,
      "¡ǉŋ": 3649,
      "¡ǣ": 3650,
      "ê": 3651,
      "ô": 3652,
      "ȌG": 3653,
      "»": 3654,
      "ǋf": 3655,
      "¥ǉō": 3656,
      "ǨQ¡": 3657,
      "¼": 3658,
      "ȭO": 3659,
      "ǉő": 3660,
      "ǻI": 3661,
      "®": 3662,
      "ǎ`": 3663,
      "Ț[": 3664,
      "ǉŋ": 3665,
      "ǉŢ": 3666,
      "¡ǉŉ": 3667,
      "¥ǉō": 3668,
      "Ǫ+": 3669,
      "ȑR": 3670,
      "¯": 3671,
      "ò": 3672,
      "¬": 3673,
      "Ȃ`": 3674,
      "ð": 3675,
      "Í": 3676,
      "ǟW": 3677,
      "Ǡ]": 3678,
      "ǉś": 3679,
      "ǥ^": 3680,
      "Ǿ^": 3681,
      "%ɒÞǫ<": 3682,
      "»": 3683,
      "µ": 3684,
      "¡ê": 3685,
      "ǦŻ": 3686,
      "¼": 3687,
      "ǑY": 3688,
      "Ý": 3689,
      "ǉņ": 3690,
      "ȉQ": 3691,
      "¡î": 3692,
      "ȌW": 3693,
      "¹": 3694,
      "¥ǉŉ": 3695,
      "Ƌê": 3696,
      "ȑ]": 3697,
      "ǚS": 3698,
      "¡ú": 3699,
      "¡ǉņ": 3700,
      "ú": 3701,
      "ǉō": 3702,
      "«": 3703,
      "ț7": 3704,
      "ǍF": 3705,
      "Ǧ4": 3706,
      "ǎC": 3707,
      "£ǉŇ": 3708,
      "¢": 3709,
      "ǫ*": 3710,
      "ǉŨ": 3711,
      "ǉũ": 3712,
      "ǕU": 3713,
      "ȃV": 3714,
      "ȑ\\": 3715,
      "ǉš": 3716,
      "țP": 3717,
      "ǌ`": 3718,
      "û": 3719,
      "ǉŋ": 3720,
      "¡ê": 3721,
      "ȞT": 3722,
      "ȣS": 3723,
      "ǉő": 3724,
      "ȑQ": 3725,
      "ǟM": 3726,
      "ǻF": 3727,
      "Ǌn": 3728,
      "Ȉ^": 3729,
      "Ǖ_": 3730,
      "¡ê": 3731,
      "ò": 3732,
      "ǉő": 3733,
      "¯": 3734,
      "¹": 3735,
      "ȓL": 3736,
      "û": 3737,
      "ǛS": 3738,
      "¡ǉŖ": 3739,
      "p": 3740,
      "ǐP": 3741,
      "ȓd": 3742,
      "¡î": 3743,
      "æ": 3744,
      "ǉţ": 3745,
      "ȡ<": 3746,
      "ȿ5": 3747,
      "î": 3748,
      "ǉũ": 3749,
      "ǣ": 3750,
      "Ǌk": 3751,
      "Ǖb": 3752,
      "ȓe": 3753,
      "¦": 3754,
      "Ǭ?": 3755,
      "Ǳ,": 3756,
      "ò": 3757,
      "ȣP": 3758,
      "Ǌ+": 3759,
      "º": 3760,
      "ǉņ": 3761,
      "¡ǉŉ": 3762,
      "ǉŌ": 3763,
      "õǉō": 3764,
      "ǽT": 3765,
      "ȤK": 3766,
      "æ": 3767,
      "ȟZ": 3768,
      "ǰ,": 3769,
      "ǌI": 3770,
      "ǯ4": 3771,
      "Ȃ^": 3772,
      "è": 3773,
      "è": 3774,
      "¬": 3775,
      "ǉł": 3776,
      "ȇF": 3777,
      "ǼZ": 3778,
      "Ǧ0": 3779,
      "ȕ\\": 3780,
      "ö": 3781,
      "ǉŉ": 3782,
      "ì": 3783,
      "æ": 3784,
      "ȡ0": 3785,
      "½": 3786,
      "ǉņǉŖ": 3787,
      "ȆP": 3788,
      "ǑW": 3789,
      "ȤP": 3790,
      " ǉŇ": 3791,
      " ê": 3792,
      "ǨE": 3793,
      "ü": 3794,
      "ǉŏ": 3795,
      "¬": 3796,
      "ȓa": 3797,
      "ǉŵ": 3798,
      "Ǌ": 3799,
      "§": 3800,
      "ǖY": 3801,
      " ò": 3802,
      "ǖS": 3803,
      "¡ø": 3804,
      "ǉš": 3805,
      "ì": 3806,
      "ǉţ": 3807,
      "Ǳ;": 3808,
      "ǽO": 3809,
      "¢ǉŇ": 3810,
      "ǉņ": 3811,
      "¡ö": 3812,
      "ǸQ": 3813,
      "ǣQ¢": 3814,
      "ú": 3815,
      "ǉŋ": 3816,
      "ȡK": 3817,
      "±": 3818,
      "ǉŨ": 3819,
      "ȆN": 3820,
      " â": 3821,
      "ǽR": 3822,
      "¦": 3823,
      "¡ǣL": 3824,
      "ǉţ": 3825,
      "´": 3826,
      "ǬL": 3827,
      "ǯ>": 3828,
      "ú": 3829,
      "Ý": 3830,
      "ǉō": 3831,
      "ǉŢ": 3832,
      "Ǣ:": 3833,
      "Ý": 3834,
      "ǉŐ": 3835,
      "ǉş": 3836,
      "ð": 3837,
      "ǉš": 3838,
      "ä": 3839,
      "ȡH": 3840,
      "¡ǉŋ": 3841,
      "ǉŉ": 3842,
      "ǉţ": 3843,
      "Ɖè": 3844,
      "ǎb": 3845,
      "ț<": 3846,
      "ë": 3847,
      "ǉŴ": 3848,
      "ì": 3849,
      "ǼG": 3850,
      "¡æ": 3851,
      "ǢQ ": 3852,
      "Ǽ`": 3853,
      "%ɒÞǫ:": 3854,
      "ǏA": 3855,
      "ȡW": 3856,
      "ǉš": 3857,
      "³": 3858,
      "¯": 3859,
      "ü": 3860,
      "ä": 3861,
      "ǯ8": 3862,
      "ȈZ": 3863,
      "ê": 3864,
      "ǉŏ": 3865,
      "¡ǣE": 3866,
      "ȆS": 3867,
      "¥æ": 3868,
      "ǣV ": 3869,
      "ǊżǊM": 3870,
      "ǟU": 3871,
      "Ǻh": 3872,
      "ǭH": 3873,
      "ǉōò": 3874,
      "ǫ2 ": 3875,
      "Ȝ^": 3876,
      "ǣ_": 3877,
      "ǕM": 3878,
      "¼": 3879,
      "ǉś": 3880,
      "ǉř": 3881,
      "´": 3882,
      "ǉŢ": 3883,
      "¯": 3884,
      "ȳ]": 3885,
      "ǐN": 3886,
      "ǟP": 3887,
      "ǉő": 3888,
      "ǉŢ": 3889,
      "ǉŶ": 3890,
      "òǉņ": 3891,
      "Ǣ8": 3892,
      "ǌb": 3893,
      "¡ö": 3894,
      "ǧ8": 3895,
      "¡ǉř": 3896,
      "ë": 3897,
      "ǉŢ": 3898,
      "ǉŨ": 3899,
      "ǉŊ": 3900,
      "ǕJ": 3901,
      "ȉR": 3902,
      "ä": 3903,
      "ǉŔ": 3904,
      "®": 3905,
      "ȟW": 3906,
      "ȤH": 3907,
      "ȃI": 3908,
      "ȡC": 3909,
      "¢ǉō": 3910,
      "ǉţ": 3911,
      "Ǌ/": 3912,
      "ǍC": 3913,
      "ǐż": 3914,
      "¡æ": 3915,
      "ȊQ": 3916,
      "ɉV": 3917,
      "ú": 3918,
      "ǉš": 3919,
      "¡ǉŋ": 3920,
      "ǉŖ¥": 3921,
      "ǉť": 3922,
      "ȳE": 3923,
      "ȀJ": 3924,
      "ǉŰ": 3925,
      "ǯ0": 3926,
      "ȌU": 3927,
      "¯": 3928,
      "ȡU": 3929,
      "Ǩ>¡": 3930,
      " ǉő": 3931,
      "ǰT": 3932,
      "ǹ<": 3933,
      "¡è": 3934,
      "æ": 3935,
      "ê": 3936,
      "ö": 3937,
      "ǯ3": 3938,
      "Ǭ+": 3939,
      "®": 3940,
      "ð": 3941,
      "ǪB": 3942,
      " ǉņ": 3943,
      "¡ǣJ¡": 3944,
      "¡": 3945,
      "ǜl": 3946,
      "ȕ^": 3947,
      "¡ǧI": 3948,
      "ì": 3949,
      "¡ö": 3950,
      "ǉŖ": 3951,
      "ǪH": 3952,
      "ǋg": 3953,
      "ǐU": 3954,
      "è": 3955,
      "¥ǉō": 3956,
      "®": 3957,
      "ǰ?": 3958,
      "ǭ7¡": 3959,
      "ǫD": 3960,
      "Ǳ)": 3961,
      "ȳT": 3962,
      "ǰ/": 3963,
      "ǍP": 3964,
      "Ȝ`": 3965,
      "­": 3966,
      "ǷX": 3967,
      "ô": 3968,
      "ǉţ": 3969,
      "ȕU": 3970,
      "Ɖø": 3971,
      "ǚL": 3972,
      "ǭV": 3973,
      "ǯ-": 3974,
      "ȡ7": 3975,
      " ǉŇ": 3976,
      "ȃF": 3977,
      "ǉ": 3978,
      "ǉŏ": 3979,
      "ȉJ": 3980,
      "ȌF": 3981,
      "ȳS": 3982,
      "ª": 3983,
      "ȃN": 3984,
      "ǉŇ": 3985,
      "ǚ_": 3986,
      "ȼT": 3987,
      "%ɒÞǭ0": 3988,
      "ô": 3989,
      "ȇż": 3990,
      "©ǉŇ": 3991,
      "ǝ]": 3992,
      "ǉţ": 3993,
      "ǉŢ": 3994,
      "¡ö": 3995,
      "¡ú": 3996,
      "ǰL": 3997,
      " Ɖ": 3998,
      "ǚU": 3999,
      "è": 4000,
      "țC": 4001,
      "ǌG": 4002,
      "ò": 4003,
      "·": 4004,
      "ǉņ": 4005,
      "¯": 4006,
      "¡ǉņ": 4007,
      "»": 4008,
      "â": 4009,
      "ǠS": 4010,
      "¡ǉŇ": 4011,
      "ȆL": 4012,
      "ȞM": 4013,
      "ȡA": 4014,
      "ǉś": 4015,
      "è": 4016,
      "ǿ\\": 4017,
      "ø": 4018,
      "°": 4019,
      " ê": 4020,
      "ǖL": 4021,
      "ǬB": 4022,
      "¼": 4023,
      "ȆW": 4024,
      "¡ö": 4025,
      " Ȟ": 4026,
      "ǽQ": 4027,
      "¡î": 4028,
      "ª": 4029,
      "ê": 4030,
      "ȟX": 4031,
      "¨": 4032,
      "ǉő": 4033,
      "ȕO": 4034,
      "ȜQ": 4035,
      "¯": 4036,
      "ȤW": 4037,
      " î": 4038,
      "µ": 4039,
      "º": 4040,
      "ȉN": 4041,
      "Ǳ?": 4042,
      "è": 4043,
      "ȎX": 4044,
      "¡ǧO": 4045,
      "Ǐ\\": 4046,
      "¡ú": 4047,
      "ì": 4048,
      "ǉũ": 4049,
      "³": 4050,
      "ǖ]": 4051,
      "ǉś": 4052,
      "Ȝb": 4053,
      "¡ǣR": 4054,
      "¥ǉō": 4055,
      "ǉŨ": 4056,
      "ǢL¡": 4057,
      "Ý": 4058,
      "ǉţ": 4059,
      "ǟ[": 4060,
      "ǪD": 4061,
      "ǸX": 4062,
      "Ǩ\\": 4063,
      "à": 4064,
      "ǉŇǉō": 4065,
      "ò": 4066,
      "ǉŇ": 4067,
      "ä": 4068,
      "º": 4069,
      "ǉŨ": 4070,
      "âǉŖ": 4071,
      "ǻd": 4072,
      "Ț]": 4073,
      "¡ǉő": 4074,
      "ǉŞ": 4075,
      "ǉŵ": 4076,
      "ǰ=": 4077,
      " ö": 4078,
      "¡ê": 4079,
      "¥ǉŋ": 4080,
      "ǠY": 4081,
      "Ǌ": 4082,
      "ǉŞ": 4083,
      "¡ú": 4084,
      "ð": 4085,
      "¡ǉő": 4086,
      " ǉņ": 4087,
      " ǉŉ": 4088,
      "%ɒÞǭ9": 4089,
      "%ɒÞǫ1": 4090,
      "ð": 4091,
      "ǉŏ": 4092,
      "¥ǉō": 4093,
      "ǖW": 4094,
      "ǉş": 4095,
      "ȣV": 4096,
      "ǖM": 4097,
      "®": 4098,
      "Ǻ9": 4099,
      "ü": 4100,
      "¡ǣQ": 4101,
      "¥î": 4102,
      "¡ò": 4103,
      " ǉņ": 4104,
      "ǰG": 4105,
      "ǉũ": 4106,
      "Ǖ`": 4107,
      "ó": 4108,
      "ø": 4109,
      "¡ò": 4110,
      "ǉŋǉō": 4111,
      "ǉŋǉō": 4112,
      "ȇI": 4113,
      "ȭQ": 4114,
      "¡ä": 4115,
      "¾": 4116,
      "ô": 4117,
      "¡ǧL": 4118,
      "Ǥ_": 4119,
      "¡ǧC": 4120,
      "¡ǣO": 4121,
      "ǉũ": 4122,
      "´": 4123,
      "ǭO": 4124,
      "¥ǉņ": 4125,
      "¡ǣQ": 4126,
      "³": 4127,
      "ȭV": 4128,
      "ǪJ": 4129,
      "ǉţ": 4130,
      "ø": 4131,
      "î": 4132,
      "§": 4133,
      "ǬJ": 4134,
      "ȜR": 4135,
      "è": 4136,
      "Ǐ>": 4137,
      "ǬH": 4138,
      "â": 4139,
      "ǉōǉř": 4140,
      "ǉő": 4141,
      "ǿż": 4142,
      "ǨC¡": 4143,
      "ǍA": 4144,
      "ǫJ": 4145,
      "ȳV": 4146,
      "¹": 4147,
      "ǉŢ": 4148,
      "ǉņ": 4149,
      "Ȇ[": 4150,
      "¡ò": 4151,
      "ǉŜ": 4152,
      "ǧE": 4153,
      "ǡT": 4154,
      "Ǧ^": 4155,
      "Ǻl": 4156,
      "ǾI": 4157,
      "ȆY": 4158,
      "î": 4159,
      "ȡ:": 4160,
      "ǣX ": 4161,
      "«": 4162,
      "±": 4163,
      "ǉŢ": 4164,
      "ǻ_": 4165,
      "û": 4166,
      "±": 4167,
      "ǉš": 4168,
      "â": 4169,
      "ô": 4170,
      "ê": 4171,
      "ǺD": 4172,
      "ð": 4173,
      " ǉŉ": 4174,
      "¹": 4175,
      "ǋi": 4176,
      "ǤD": 4177,
      "°": 4178,
      "¡æ": 4179,
      "Ǌm": 4180,
      "Ǿż": 4181,
      "ǿG": 4182,
      "ǉņǉō": 4183,
      "ȟT": 4184,
      "ȤE": 4185,
      "¡ǧM": 4186,
      "ǬG": 4187,
      "ǼE": 4188,
      "Å": 4189,
      "ǿ_": 4190,
      "ȆU": 4191,
      "Ǩż": 4192,
      "ǴJ": 4193,
      "ȉY": 4194,
      "æ": 4195,
      "ö": 4196,
      "ǉũ": 4197,
      "ǲ`": 4198,
      "°": 4199,
      "¥ǉŉ": 4200,
      "à": 4201,
      "ò": 4202,
      "ǉřǉŜ": 4203,
      "Ǥ:": 4204,
      "ț5": 4205,
      "%ɒá": 4206,
      "ǉŏ": 4207,
      "ȓJ": 4208,
      "ǉŉ": 4209,
      "ȕb": 4210,
      "ì": 4211,
      "¡ǉņ": 4212,
      "ǉŋ": 4213,
      "ǉš": 4214,
      "ǐG": 4215,
      "ǉŞ": 4216,
      "ȂP": 4217,
      "¡ǉņ": 4218,
      "º": 4219,
      "ǕL": 4220,
      "ǬO": 4221,
      "à": 4222,
      "ö": 4223,
      "ǉţ": 4224,
      "ǉš": 4225,
      "°": 4226,
      "à": 4227,
      "ǚe": 4228,
      "Ǜi": 4229,
      "à": 4230,
      "ǣL": 4231,
      "ǧE ": 4232,
      "ȳX": 4233,
      "ǣŻǣJ": 4234,
      "°": 4235,
      "Ǜc": 4236,
      "ǉŏ": 4237,
      "ü": 4238,
      "¡ǣQ¡": 4239,
      "ǉő": 4240,
      "ȭT": 4241,
      "ü": 4242,
      "íǉō": 4243,
      "%ɒÞǪ<": 4244,
      "¥ǉŏ": 4245,
      "ǲO": 4246,
      "ǛM": 4247,
      "Ǐ_": 4248,
      "ǫT": 4249,
      "Ɖ": 4250,
      "ǉŋ": 4251,
      "ȣK": 4252,
      "ǰD": 4253,
      "´": 4254,
      "ǑU": 4255,
      "¡ǉő": 4256,
      "ǉŊ": 4257,
      "ȂJ": 4258,
      "Ǔ": 4259,
      "ǉņǉō": 4260,
      "´": 4261,
      "ǉő": 4262,
      "¥ǉŉ": 4263,
      "ǡV": 4264,
      "¼": 4265,
      "ǉŏ": 4266,
      "¡ǉŖ": 4267,
      " ǉŉ": 4268,
      "î": 4269,
      "Ǻ7": 4270,
      "ǉš": 4271,
      "ǎŻ": 4272,
      "ǉņ": 4273,
      "ȎV": 4274,
      "¡ǤM": 4275,
      "Ɖ": 4276,
      "à": 4277,
      "ǖR": 4278,
      "ǣ": 4279,
      "ț>": 4280,
      "Ɖ": 4281,
      "¸": 4282,
      "ǭJ": 4283,
      "ã": 4284,
      "ȓc": 4285,
      "²": 4286,
      "ȞV": 4287,
      "ǚK": 4288,
      "¡ö": 4289,
      "à": 4290,
      "ǉŴ": 4291,
      "°": 4292,
      "ǬS": 4293,
      "ȑS": 4294,
      "ȋI": 4295,
      "țW": 4296,
      "ð": 4297,
      "ȡg": 4298,
      "ð": 4299,
      "ǖJ": 4300,
      "ǉō": 4301,
      "¡ò": 4302,
      "ǨE¡": 4303,
      "Ȉ`": 4304,
      " ǉŉ": 4305,
      "ǉœ": 4306,
      "î": 4307,
      "à": 4308,
      "¢ǉŉ": 4309,
      "£": 4310,
      "ǑG": 4311,
      "»": 4312,
      "ǉŵ": 4313,
      "¢ǉŇ": 4314,
      "¾": 4315,
      "Ǐ`": 4316,
      "ȕS": 4317,
      "¡ò": 4318,
      "ǢT¡": 4319,
      "º": 4320,
      "³": 4321,
      "ȡ`": 4322,
      "ǉŋ": 4323,
      "ǣQ": 4324,
      "ǉŖ": 4325,
      "ò": 4326,
      "ȈN": 4327,
      " ǉŘ": 4328,
      "¡ǉŋ": 4329,
      "¡æ": 4330,
      "ǉŖ": 4331,
      "%ɒÞǭ<": 4332,
      " ǉŖ": 4333,
      "ǚH": 4334,
      "Ǌ": 4335,
      "¡î": 4336,
      "ǉŏ": 4337,
      "¡â": 4338,
      "¡ú": 4339,
      "¨": 4340,
      "Ǧ8": 4341,
      "£": 4342,
      "¡ǉŏ": 4343,
      "¡ö": 4344,
      "ǢH¡": 4345,
      "ǉũ": 4346,
      "æ": 4347,
      "ǍK": 4348,
      "ǉŵ": 4349,
      "º": 4350,
      " ǉŞ": 4351,
      "ǉŇǉō": 4352,
      "¡ú": 4353,
      "ǣQ": 4354,
      "ǋ8": 4355,
      "¼": 4356,
      "ǰ)": 4357,
      "¡ǉő": 4358,
      "¡ǉő": 4359,
      "ǉŇǉō": 4360,
      "¯": 4361,
      "ǥżǥM": 4362,
      "ǣR": 4363,
      "äǉŉ": 4364,
      "¡ǉŋ": 4365,
      "â": 4366,
      "Ƌò": 4367,
      "¡ǉņ": 4368,
      "â": 4369,
      "ǉ": 4370,
      "¹": 4371,
      "ȼY": 4372,
      "ø": 4373,
      "ȡZ": 4374,
      "ȤU": 4375,
      "ê": 4376,
      "ǣO": 4377,
      "¡ǉņ": 4378,
      "æ": 4379,
      "ȓN": 4380,
      "ȭM": 4381,
      "¢ǣX": 4382,
      "1¡": 4383,
      "½": 4384,
      "¶": 4385,
      "ü": 4386,
      "ò": 4387,
      "ǋ3": 4388,
      "à": 4389,
      "¾": 4390,
      "ǉō": 4391,
      "ǻe": 4392,
      "¡ǣO": 4393,
      "ǢżǢJ": 4394,
      "¡â": 4395,
      "·": 4396,
      "ȜW": 4397,
      "Ȥż": 4398,
      "ȈE": 4399,
      "à": 4400,
      "ǣJ": 4401,
      "´": 4402,
      "Ɖ": 4403,
      "ý": 4404,
      "ì": 4405,
      "Ǧ\\": 4406,
      "¡ê": 4407,
      "ǉũ": 4408,
      "£ǉņ": 4409,
      "¡ǉŇǉŉ": 4410,
      "ǉŨ": 4411,
      "¡ǣO": 4412,
      "ǉŎ": 4413,
      "ì": 4414,
      "ȟ[": 4415,
      "ȢM": 4416,
      "ø": 4417,
      "à": 4418,
      "ǌA": 4419,
      "¡ǨC": 4420,
      "ǉŢ": 4421,
      "ȞJ": 4422,
      "Ý": 4423,
      "ǊQ¡": 4424,
      "¢ǣX¢": 4425,
      " ǉř": 4426,
      "¹": 4427,
      "Ǥ9": 4428,
      "ȉL": 4429,
      "ȡN": 4430,
      "ȌC": 4431,
      "¡î": 4432,
      "¡ê": 4433,
      "ǱC": 4434,
      "Å": 4435,
      "ǨJ¡": 4436,
      "ǉŢ": 4437,
      "¡ê": 4438,
      "ǋc": 4439,
      "Ɖ": 4440,
      "ǉō": 4441,
      "ǑP": 4442,
      "º": 4443,
      "ȋ^": 4444,
      "ǉŔ": 4445,
      "ǉņǉō": 4446,
      "¡ǣL": 4447,
      "ȡ@": 4448,
      "ǣR": 4449,
      "ǉŠ": 4450,
      "¡ǉŏ": 4451,
      "·": 4452,
      "ǋ4": 4453,
      "Ǫ,": 4454,
      "Ȏ]": 4455,
      " ú": 4456,
      "ǉŔ": 4457,
      "ȓg": 4458,
      "´": 4459,
      "ǉŨ": 4460,
      "ǉŨ": 4461,
      "°": 4462,
      "ǲS": 4463,
      "¡æ": 4464,
      "ä": 4465,
      "¢ǉō": 4466,
      "ǐ@": 4467,
      "¿": 4468,
      "°": 4469,
      " â": 4470,
      "©": 4471,
      "ȜO": 4472,
      "ǣ8": 4473,
      "ǊF": 4474,
      "¥ǉő": 4475,
      "ô": 4476,
      "ǐA": 4477,
      "ä": 4478,
      "¡ǉŵ": 4479,
      " ǉŇ": 4480,
      "ǻc": 4481,
      "ȟU": 4482,
      "ý": 4483,
      "ǻE": 4484,
      "ǊżǊH": 4485,
      "ȚL": 4486,
      "¢ǣQ¢": 4487,
      "ǫ2¡": 4488,
      "ûǉŉ": 4489,
      "ǌZ": 4490,
      "Ǐ^": 4491,
      "è": 4492,
      "ò": 4493,
      "%ɒÞǪ2": 4494,
      "ǉŇ": 4495,
      "ǚg": 4496,
      "ǋ6": 4497,
      "ǪT": 4498,
      "¡ú": 4499,
      "Ǩ@": 4500,
      "ö": 4501,
      "¸": 4502,
      "¡ǉŇ": 4503,
      "Ǧd": 4504,
      "ȆJ": 4505,
      "ǉ": 4506,
      "¡ǣQ": 4507,
      "Ǭ*": 4508,
      "ǉŔ": 4509,
      "¿": 4510,
      "óǉŉ": 4511,
      "ȞP": 4512,
      "ǉŋ": 4513,
      "ǐ]": 4514,
      "ǷU": 4515,
      "ô": 4516,
      "¡æ": 4517,
      " ǉŉ": 4518,
      "¹": 4519,
      "ÞǉŇ": 4520,
      "¡ê": 4521,
      "¢ǉō": 4522,
      "ǫ1¡": 4523,
      "": 4524,
      "ǜn": 4525,
      "Í": 4526,
      "¹": 4527,
      "ǉũ": 4528,
      "ǜj": 4529,
      "¡ǣC": 4530,
      "ǧI¡": 4531,
      "¾": 4532,
      "¸": 4533,
      "ǉŇǉō": 4534,
      "î": 4535,
      "¡ê": 4536,
      "ǑX": 4537,
      "ø": 4538,
      "Ǻ@": 4539,
      "ǉŴ": 4540,
      "Ȅ5": 4541,
      "ǟZ": 4542,
      "ǉő": 4543,
      "ùǉŉ": 4544,
      "ǫ0": 4545,
      "¡ǣO": 4546,
      "ð": 4547,
      "¥ǉŉ": 4548,
      "ǊM": 4549,
      "ǉň": 4550,
      "ǖZ": 4551,
      "ǭF": 4552,
      "ȟQ": 4553,
      "ȣX": 4554,
      "¡ǉő": 4555,
      "â": 4556,
      "ǦE": 4557,
      "ǛP": 4558,
      "à": 4559,
      "țI": 4560,
      "ǻ\\": 4561,
      "¡ǥL": 4562,
      "¡ǤO": 4563,
      "ìǉŋ": 4564,
      "ǫ2¡": 4565,
      "¡ǣQ": 4566,
      "ǰN": 4567,
      "Ǭ,": 4568,
      "ǉŨ": 4569,
      "Ȉ_": 4570,
      "ð": 4571,
      "ǉţ": 4572,
      "ǰS": 4573,
      "ȊO": 4574,
      "ǉŋǉō": 4575,
      "¥ú": 4576,
      "ö": 4577,
      "¡ǨH¡": 4578,
      "ǻż": 4579,
      " ǉŖ": 4580,
      "ǉś": 4581,
      "ǷZ": 4582,
      "æ": 4583,
      "¥ǢE": 4584,
      "¥ǉō": 4585,
      "´": 4586,
      "ǏD": 4587,
      "ó": 4588,
      "ú": 4589,
      "º": 4590,
      "³": 4591,
      "ǷR": 4592,
      "ǣO": 4593,
      "ú": 4594,
      "ǉũ": 4595,
      "țb": 4596,
      "ȡE": 4597,
      "¡î": 4598,
      "ǋżǋH": 4599,
      "±": 4600,
      "ȕN": 4601,
      "¡ò": 4602,
      "țE": 4603,
      "ǉŭǉŶ": 4604,
      "ǻG": 4605,
      "ȕR": 4606,
      "ȮV": 4607,
      "ȼV": 4608,
      "¡ǉŇ": 4609,
      "ǊX": 4610,
      "ǉũ": 4611,
      "ǌ<": 4612,
      "ǉŖ": 4613,
      "țG": 4614,
      "ȟ]": 4615,
      "åǉō": 4616,
      "Ý": 4617,
      "¡ǣH": 4618,
      "ǉŖ¡": 4619,
      "¡ê": 4620,
      "ȊV": 4621,
      "¡ǣR": 4622,
      "ǉņǉō": 4623,
      "à": 4624,
      "¡î": 4625,
      "ǉņ": 4626,
      "¡î": 4627,
      "¡ǣO": 4628,
      "¡ǉő": 4629,
      "ǣb": 4630,
      "Å": 4631,
      "ǰB": 4632,
      "ǽJ": 4633,
      "º": 4634,
      "țF": 4635,
      "ǉŎ": 4636,
      "ǍW": 4637,
      "â": 4638,
      "ǌe": 4639,
      "ǽV": 4640,
      "ô": 4641,
      "ǣL": 4642,
      "Ȥ]": 4643,
      "ǑA": 4644,
      "¥ò": 4645,
      "¡ǣL": 4646,
      "£ǉō": 4647,
      "ǣa": 4648,
      "ȉ[": 4649,
      "ö": 4650,
      "ê": 4651,
      "ǨE¡": 4652,
      "țK": 4653,
      "ǉś": 4654,
      "ȟ\\": 4655,
      "ǊJ¡": 4656,
      "ǉő": 4657,
      "Ǌ": 4658,
      "ȜM": 4659,
      "û": 4660,
      "Ɖ": 4661,
      "¥ö": 4662,
      "ȋ\\": 4663,
      "û": 4664,
      "ǉŉ": 4665,
      "ǣQ": 4666,
      "ǣO": 4667,
      "ǶQ": 4668,
      "ǉŊ": 4669,
      "ǕN": 4670,
      "¡î": 4671,
      "©": 4672,
      "Ȁ\\": 4673,
      "ǉŇǉŉ": 4674,
      "¼": 4675,
      "·": 4676,
      "¯": 4677,
      "ǉŇǉō": 4678,
      "â": 4679,
      "ǉő": 4680,
      "ǉő": 4681,
      "ǨJ¡": 4682,
      " ǉř": 4683,
      "ǉŢ": 4684,
      "ț=": 4685,
      "ë": 4686,
      "ǦJ¡": 4687,
      "º": 4688,
      "ȇc": 4689,
      "ü": 4690,
      "¢ǉō": 4691,
      "¥ê": 4692,
      "ǜk": 4693,
      "ð": 4694,
      "ǿE": 4695,
      "ȃY": 4696,
      "Ȝa": 4697,
      "ø": 4698,
      "ǉŏ~": 4699,
      "ǉŇǉŏ": 4700,
      "ǉũ": 4701,
      "¡ǉŕ": 4702,
      "ȿ": 4703,
      "Á": 4704,
      "ǐI": 4705,
      "ǍI": 4706,
      "¡ǣS": 4707,
      "¡ú": 4708,
      "ǣQ": 4709,
      "ȥQ": 4710,
      "ǉŋǉō": 4711,
      "¥ǉō": 4712,
      "¥ǉŇ": 4713,
      "ǉŖ": 4714,
      "Ǯ3": 4715,
      "ǐ>": 4716,
      "ǭT": 4717,
      "¡ǣT": 4718,
      "¡ǣQ": 4719,
      "£ǉō": 4720,
      "ȑU": 4721,
      "ȸV": 4722,
      "ǉ": 4723,
      "Ȏ[": 4724,
      "ȞH": 4725,
      "¡ò": 4726,
      "ê": 4727,
      "ǉũ": 4728,
      "ǉŹ": 4729,
      "ǲR": 4730,
      "ǢM": 4731,
      "ȟO": 4732,
      "Ǣ_": 4733,
      "¡ü": 4734,
      "ù": 4735,
      "Ǩ@¡": 4736,
      "´": 4737,
      "ǴH": 4738,
      "ɉG": 4739,
      "ǌŻ": 4740,
      "ý": 4741,
      "ǉŇ": 4742,
      "ǉŖ": 4743,
      "Ǥ;": 4744,
      "%ɒÞǉŏ": 4745,
      "¥ǉō": 4746,
      "ǣO": 4747,
      "ǉō ": 4748,
      "ô": 4749,
      "®": 4750,
      "ȣU": 4751,
      "ǣR": 4752,
      "¥ǉŖ": 4753,
      "ø": 4754,
      "ǉŖ": 4755,
      "ǣJ": 4756,
      "ȅ": 4757,
      "ó": 4758,
      "Ȁ_": 4759,
      "¡ǣQ": 4760,
      " ǉő ": 4761,
      "ȋG": 4762,
      "ǉŏ": 4763,
      "ǚc": 4764,
      "¡ö": 4765,
      "ǉŢ": 4766,
      "ȞG": 4767,
      "%ɒÞǫ/": 4768,
      "ǢC¡": 4769,
      "¶": 4770,
      "ò": 4771,
      "Í": 4772,
      "ǉŊ": 4773,
      "ä": 4774,
      " Ɖ": 4775,
      "Ǣ`": 4776,
      "ǰK": 4777,
      "¡â": 4778,
      "¡ö": 4779,
      "ǻa": 4780,
      "ǉő ": 4781,
      "¡ǦE": 4782,
      "%ɒÞǪ:": 4783,
      "¹": 4784,
      "ǼŻ": 4785,
      "¡ǉŋ": 4786,
      "ö": 4787,
      "": 4788,
      "¡ǣQ": 4789,
      "ǿ^": 4790,
      "ȉP": 4791,
      "¡ǣM": 4792,
      "¡æ": 4793,
      "¶": 4794,
      "·": 4795,
      "ǎA": 4796,
      "¥ǉņ": 4797,
      "ǉŨ": 4798,
      "ǣżǣK": 4799,
      "´": 4800,
      "º": 4801,
      "ý": 4802,
      "ǊT¡": 4803,
      "¡ǧ@": 4804,
      "³": 4805,
      "ǉŏ": 4806,
      "ǥa": 4807,
      "¡æ": 4808,
      "ǨE ": 4809,
      "«": 4810,
      "ǉŖ": 4811,
      "ǐ_": 4812,
      "ǴA": 4813,
      "%ɒÞǪ0": 4814,
      "ó": 4815,
      "Ǐ<": 4816,
      " â": 4817,
      "¥â": 4818,
      "ü": 4819,
      "Ɖ": 4820,
      "ǧB¡": 4821,
      "Í": 4822,
      "ǛJ": 4823,
      "ǠU": 4824,
      "ǱE": 4825,
      "Ƕ[": 4826,
      "¥ǣO": 4827,
      "¡ø": 4828,
      "ó": 4829,
      "ǫ5¡": 4830,
      "ǉũ": 4831,
      "Ǽ\\": 4832,
      "¡è": 4833,
      "Ǜa": 4834,
      "ǉňǉō": 4835,
      " ǉō ": 4836,
      "Ǒ9": 4837,
      "ǜJ": 4838,
      "¼": 4839,
      "Ȃ_": 4840,
      " ò": 4841,
      "ä": 4842,
      "ǉš": 4843,
      "Ǯ/": 4844,
      "ý": 4845,
      "¡ǉũ¡": 4846,
      "ǣO": 4847,
      " ǢQ ": 4848,
      "%ɒÞǊ<": 4849,
      "ù": 4850,
      "¡ǣJ": 4851,
      "ǉņ¡ǉō": 4852,
      "ý": 4853,
      "Å": 4854,
      "ǧG¡": 4855,
      "ǉő": 4856,
      "ǜL": 4857,
      "ǢO¡": 4858,
      "¹": 4859,
      "¡â": 4860,
      "ȕP": 4861,
      "ǉņǉő": 4862,
      "Ǩ6": 4863,
      "ǳQ": 4864,
      "¡ú": 4865,
      "ǧO ": 4866,
      "ǷO": 4867,
      "÷": 4868,
      "ǉŉ": 4869,
      "ǉũ": 4870,
      "ǣJ": 4871,
      "Ǎ<": 4872,
      "ô": 4873,
      "ǊM¡": 4874,
      "ǉŇǉōǉŖ": 4875,
      "»": 4876,
      "Ǐ@": 4877,
      "ǉŇǉō": 4878,
      "ǉŉǉō": 4879,
      "Ǿ`": 4880,
      "ǉś": 4881,
      "Ɖ": 4882,
      "ǏB": 4883,
      "ǑF": 4884,
      "ȃS": 4885,
      "÷": 4886,
      "ë": 4887,
      "ǉŵ": 4888,
      "ǉŠ": 4889,
      "³": 4890,
      "¡ǉř": 4891,
      " ǉř": 4892,
      "®": 4893,
      "Ȃb": 4894,
      "è": 4895,
      "ǣC": 4896,
      "ǚN": 4897,
      "ý": 4898,
      "Å": 4899,
      "û": 4900,
      "ìǉŇ": 4901,
      "à": 4902,
      "¡î": 4903,
      "ǣL": 4904,
      "ȈŻ": 4905,
      "ȮT": 4906,
      "%ɒÞǫ6": 4907,
      "ǉŢ": 4908,
      "¶": 4909,
      "ȡF": 4910,
      " ǉŇ": 4911,
      "¡ǫ-": 4912,
      "î": 4913,
      "¿": 4914,
      "ǧQ ": 4915,
      "ǉś": 4916,
      "ǉņǉō": 4917,
      "ǾG": 4918,
      "Ý": 4919,
      "ú": 4920,
      "ǉŏ": 4921,
      "ǣO": 4922,
      "â": 4923,
      "â": 4924,
      "Ǎ>": 4925,
      "¢ǋQ": 4926,
      "õ": 4927,
      "¡ǧF": 4928,
      " ǉŖ": 4929,
      "ǉŉǉō": 4930,
      "ó": 4931,
      "¡ǣ": 4932,
      "ǉōǉř": 4933,
      "Ǹ\\": 4934,
      "ȚS": 4935,
      "ȳI": 4936,
      "ǣJ¥": 4937,
      "î": 4938,
      "ǉň": 4939,
      "ȢV": 4940,
      "ǣT": 4941,
      "ǣżǣF": 4942,
      "¤": 4943,
      "¡ǨC¡": 4944,
      "¶": 4945,
      "Ǣ\\": 4946,
      "¡ǥQ": 4947,
      "ã": 4948,
      "ó": 4949,
      "Ɖ": 4950,
      "ǣO": 4951,
      "ǛN": 4952,
      "ǸV": 4953,
      "ô": 4954,
      "ǫG": 4955,
      "ǿ`": 4956,
      "Ǧb": 4957,
      "Ǒ\\": 4958,
      "ȢY": 4959,
      "¡ò": 4960,
      " Ǵ": 4961,
      "ǰY": 4962,
      "ȋF": 4963,
      "ɀ7": 4964,
      "ðǉŋ": 4965,
      "¡Ƕ": 4966,
      "ë": 4967,
      "ã": 4968,
      "ý": 4969,
      "ì": 4970,
      "ǥY": 4971,
      "ȑM": 4972,
      "ȥO": 4973,
      "Ȉ>": 4974,
      "ǉŖ": 4975,
      "¡ì": 4976,
      "ȈI": 4977,
      "ǉō": 4978,
      "¡â": 4979,
      "Ç": 4980,
      "¡â": 4981,
      "ǣN": 4982,
      "ȋE": 4983,
      "¡ǉŔ": 4984,
      "ǌ>": 4985,
      "ǍU": 4986,
      "¡ǉŉ": 4987,
      "¥ǉŉ": 4988,
      "¡ǉō": 4989,
      "ǉŞ": 4990,
      "Ý": 4991,
      "¡ǣL": 4992,
      "ǣ]¢": 4993,
      "ǉŇǉōâ": 4994,
      "¡ǤM¡": 4995,
      "ª": 4996,
      "¡ǉŏ": 4997,
      "ȆK": 4998,
      "¡ǥJ": 4999,
      "âǉō": 5000,
      "¡ǧN": 5001,
      "¡ǣO": 5002,
      "ǌ\\": 5003,
      "ǲM": 5004,
      "ȇa": 5005,
      "ã": 5006,
      " ǉō": 5007,
      "¥": 5008,
      "í": 5009,
      "ǉő ": 5010,
      "ǫ4¡": 5011,
      "­ǉŉ": 5012,
      "¡ǣQ": 5013,
      "¸": 5014,
      "ǖN": 5015,
      "ǉņ": 5016,
      "ȀK": 5017,
      "è": 5018,
      "ǉŉ": 5019,
      "Ǻk": 5020,
      "ì": 5021,
      "ǠO": 5022,
      "ǷP": 5023,
      "ȆH": 5024,
      "ȤN": 5025,
      "ȩO": 5026,
      "ɀ/": 5027,
      "ý": 5028,
      "¡ǣM": 5029,
      "ȣż": 5030,
      "Ɖ": 5031,
      "¢ǉō": 5032,
      "ǉŏ": 5033,
      "Ǒ@": 5034,
      "¡ǫ5": 5035,
      "ǣR": 5036,
      "¡ǉņ": 5037,
      "ǉŤ": 5038,
      "Ǐ8": 5039,
      "ȚU": 5040,
      "³": 5041,
      "ǉţ": 5042,
      "ǣO": 5043,
      "ǜH": 5044,
      "ǶX": 5045,
      "â": 5046,
      "ǣJ": 5047,
      "Ǯ<": 5048,
      "%ɒÞǭ4": 5049,
      "ǉňǉō": 5050,
      "ǕP": 5051,
      "ȚY": 5052,
      "ù": 5053,
      "ǉţ": 5054,
      "³": 5055,
      "ǯ6": 5056,
      "¥ǉŇ": 5057,
      "Ǒ[": 5058,
      "ȎY": 5059,
      "¡ǉŵ": 5060,
      "ǨH¡": 5061,
      "ȃ[": 5062,
      "ä": 5063,
      "ȊT": 5064,
      "ǉš": 5065,
      "ǷN": 5066,
      "¥ǉŉ": 5067,
      "ǉš": 5068,
      "µ": 5069,
      "ǣO": 5070,
      "ǉŞ": 5071,
      "ǫ4¡": 5072,
      "áǉř": 5073,
      "ȢT": 5074,
      "ǧD¡": 5075,
      "¡ǣJ": 5076,
      "ȞL": 5077,
      "ǋżǋO": 5078,
      "ô": 5079,
      "ǊO¥": 5080,
      "è": 5081,
      "ǫ4¡": 5082,
      "ǲL": 5083,
      "òǉő": 5084,
      "Ȣ`": 5085,
      "¡ǥO": 5086,
      "ǉŨ": 5087,
      "ü": 5088,
      "¡ǧQ": 5089,
      "Ȯ]": 5090,
      " ǉō ": 5091,
      "Ȣ[": 5092,
      "ã": 5093,
      "ǉōǉŖ": 5094,
      "%ɒÞǪ9": 5095,
      " ǉņ": 5096,
      "ǉš": 5097,
      "D": 5098,
      "¥": 5099,
      "ǉŔ": 5100,
      "ȋ`": 5101,
      "ȡ\\": 5102,
      "ǉŢ": 5103,
      "ǌ^": 5104,
      "ǉŢ": 5105,
      "ǉņ": 5106,
      "ǣM": 5107,
      "¡ǣJ": 5108,
      "¡ǣQ": 5109,
      "í": 5110,
      "ǉō": 5111,
      "´": 5112,
      "ǉŵ": 5113,
      "Ƿ[": 5114,
      "Ȁ^": 5115,
      "ý": 5116,
      "ð": 5117,
      "ǉŵ": 5118,
      "ǐ^": 5119,
      "ǣM": 5120,
      "æ": 5121,
      "ǉũ": 5122,
      "ǊƂ": 5123,
      "¡ǉŖ": 5124,
      "Ȝ\\": 5125,
      "¡ú": 5126,
      "ȚO": 5127,
      "ǨJ¥": 5128,
      "Ǿ_": 5129,
      "û": 5130,
      "ö": 5131,
      "¡ǣQ": 5132,
      "ȎQ": 5133,
      "ǧC¡": 5134,
      "%ɒÞǉŖ": 5135,
      "¡ǣJ": 5136,
      "±": 5137,
      "¡ǣJ": 5138,
      "êǉő": 5139,
      "ë": 5140,
      "ǫ2": 5141,
      "¤ɉ": 5142,
      "¡ǧA": 5143,
      "¡ǣL": 5144,
      "ý": 5145,
      " ": 5146,
      "ǉŊ": 5147,
      "ǉţ": 5148,
      "¡ǣF": 5149,
      "ß": 5150,
      "¥ǣM": 5151,
      "țż": 5152,
      " ǣX ": 5153,
      "ì": 5154,
      "¡ǉŋ": 5155,
      "ǣQ": 5156,
      "ǢO¡": 5157,
      "Ȣ^": 5158,
      "¡ǉŐ": 5159,
      "ý": 5160,
      "ǉŊ": 5161,
      "ǖU": 5162,
      " ö": 5163,
      "ǉş": 5164,
      "ǣE": 5165,
      "ǉţ": 5166,
      "Ý": 5167,
      "¥ǉŏ": 5168,
      "­ǉō": 5169,
      "¥ǉř": 5170,
      "ǩV": 5171,
      "¡ǣO": 5172,
      "ǥO": 5173,
      "¡ǉő": 5174,
      "Ǎ_": 5175,
      "ȓK": 5176,
      "ǉś": 5177,
      "¡ǉŖ": 5178,
      "·": 5179,
      "ǉř": 5180,
      "ǉň": 5181,
      "Ǹ]": 5182,
      "Ǭ2 ": 5183,
      "ǫ0¡": 5184,
      "¾": 5185,
      "ǉŢ": 5186,
      "Ǳ<": 5187,
      "ǢM¡": 5188,
      "ǣR": 5189,
      "²": 5190,
      "ùǉř": 5191,
      "ǉōǉř": 5192,
      "üǉŨ": 5193,
      "Ƌâ": 5194,
      "ǝ[": 5195,
      "ǸT": 5196,
      "Ȣ]": 5197,
      "ǉų": 5198,
      "ȟR": 5199,
      " ǉŇ": 5200,
      "ǊO": 5201,
      "ý": 5202,
      "ǩO": 5203,
      "¡ǣO": 5204,
      "Ǌ,": 5205,
      "ú": 5206,
      "ǉň": 5207,
      "ǉŔ": 5208,
      "%ɒÞƵ": 5209,
      "¾": 5210,
      "ȣG": 5211,
      "~­": 5212,
      "Ǔd": 5213,
      "ǉś": 5214,
      "¡ǣO": 5215,
      "Ȓ[": 5216,
      "ǪQ": 5217,
      "ȡ5": 5218,
      "£ǉŉ": 5219,
      " ǉō ": 5220,
      "ǣO": 5221,
      "¡ǨG": 5222,
      "â": 5223,
      "ú": 5224,
      "ǲU": 5225,
      "ȘY": 5226,
      "ȨQ": 5227,
      "ȼ[": 5228,
      "ô": 5229,
      "ý": 5230,
      "¢ǉŉ": 5231,
      "ǨB¡": 5232,
      "ǉŴ": 5233,
      "îǫ5": 5234,
      "é": 5235,
      "¯": 5236,
      "ǲZ": 5237,
      " ô": 5238,
      "ǋżǋM": 5239,
      "¡ô": 5240,
      "²": 5241,
      "ǧa": 5242,
      "ǥ8": 5243,
      "Ȯ[": 5244,
      "Å": 5245,
      "°": 5246,
      "ȭX": 5247,
      "ô": 5248,
      "£ǉŉ": 5249,
      "²": 5250,
      "ȕM": 5251,
      " ǉō": 5252,
      "¹": 5253,
      "ǧC": 5254,
      "Ɖ": 5255,
      "ǉŏ": 5256,
      "ǐLǐL": 5257,
      "ä": 5258,
      "ǫ9": 5259,
      " ǉŇ": 5260,
      "ǣQ": 5261,
      "µ": 5262,
      "Ȓ]": 5263,
      "¿": 5264,
      "ȡ>": 5265,
      "ǋQ¥": 5266,
      "¡ǣJ": 5267,
      "¡Ȩ": 5268,
      "%ɒÞǭ3": 5269,
      "ǉŢ": 5270,
      "ǉŏ": 5271,
      "ǣQ": 5272,
      "îǉŉ": 5273,
      "ȢO": 5274,
      "ȌI": 5275,
      "¡ð": 5276,
      "ǉő": 5277,
      "ȃG": 5278,
      "ǊO": 5279,
      "ǣM": 5280,
      "ǣO": 5281,
      "ǜN": 5282,
      "ǝO": 5283,
      "ȉX": 5284,
      "¥ǉŇ": 5285,
      "ǉňǉō": 5286,
      "ǐ`": 5287,
      "ó": 5288,
      "ì": 5289,
      "²": 5290,
      "·": 5291,
      "ǣJ": 5292,
      "´": 5293,
      "ȜU": 5294,
      "¢ê": 5295,
      "ǧJ ": 5296,
      "ǢE¡": 5297,
      "ǉŖ": 5298,
      "ǳT": 5299,
      " ǉŊ": 5300,
      "ǣT": 5301,
      "Í": 5302,
      "ǣ": 5303,
      "ǉţ": 5304,
      "ȑP": 5305,
      "´": 5306,
      "»": 5307,
      "ǉņǉŖ": 5308,
      "»": 5309,
      "¡à": 5310,
      "¥ǢE¥": 5311,
      "¾": 5312,
      "º": 5313,
      "ǉŉ": 5314,
      "ǣQ": 5315,
      "¡ǉř": 5316,
      "ǣO": 5317,
      "ǫ7 ": 5318,
      "ǉš": 5319,
      "ǣM": 5320,
      " ö": 5321,
      "ǌd": 5322,
      "ǬX": 5323,
      "ǻg": 5324,
      "țA": 5325,
      "ǦC¡": 5326,
      "ò": 5327,
      "ǭG": 5328,
      "ǉŢ": 5329,
      "ǭ*": 5330,
      "ǲ_": 5331,
      "ǉň": 5332,
      "ǴO": 5333,
      "ã": 5334,
      "ò": 5335,
      "ǨM¡": 5336,
      "¯": 5337,
      "Ǔ[": 5338,
      "ý": 5339,
      "³": 5340,
      "¥": 5341,
      "ǷY": 5342,
      "ø": 5343,
      "¥ǉŉ": 5344,
      "ë": 5345,
      "ǉŋǉō": 5346,
      "ǉņ": 5347,
      "ǛL": 5348,
      "Ǻn": 5349,
      "ǣQ": 5350,
      "ë": 5351,
      "ø": 5352,
      " ǉņ": 5353,
      "ǫ7": 5354,
      "ǨH": 5355,
      "ç": 5356,
      "û": 5357,
      "ǨL¡": 5358,
      "ǉŕ": 5359,
      "éǉř": 5360,
      "ǜŻ": 5361,
      "ǴL": 5362,
      "¡ò": 5363,
      "ȚZ": 5364,
      "ǣS": 5365,
      "ǉś": 5366,
      "ǉŔ": 5367,
      "æǉŇ": 5368,
      "ǭD": 5369,
      "ǭM": 5370,
      "ǰ^": 5371,
      "ȼQ": 5372,
      "ǊR": 5373,
      "ǉņǉŉ": 5374,
      "é": 5375,
      "ë": 5376,
      "¡ö": 5377,
      "¡ǧB": 5378,
      "¢": 5379,
      "Ý": 5380,
      "ǣM": 5381,
      "æǉŉǉō": 5382,
      "¡ǉŉ": 5383,
      " î": 5384,
      "ñǉř": 5385,
      "ǲW": 5386,
      "ǉŏ": 5387,
      "Á": 5388,
      "ǰP": 5389,
      "ȑZ": 5390,
      "Ǧa": 5391,
      "ǖH": 5392,
      "ǸH": 5393,
      "ȊJ": 5394,
      "ȸQ": 5395,
      "ǣO": 5396,
      "Ǎ@": 5397,
      "ȃX": 5398,
      "ȇe": 5399,
      "¡ǫ7": 5400,
      "ǢM¡": 5401,
      "ü": 5402,
      "¢ǉŋ": 5403,
      "ǉŴ": 5404,
      "ǣH": 5405,
      "ǡY": 5406,
      "¡ä": 5407,
      " ì": 5408,
      "¶": 5409,
      "Ǎ9": 5410,
      "Ƿ\\": 5411,
      "û": 5412,
      "¡ǉř": 5413,
      "ǉőǉŔ": 5414,
      "ǻC": 5415,
      "«": 5416,
      "ǉř": 5417,
      "Ȅ:": 5418,
      "ȢX": 5419,
      "¡ǉŏ": 5420,
      "ü": 5421,
      "ǫ2¡": 5422,
      "¢ǉō": 5423,
      "ǫ2": 5424,
      "Í": 5425,
      "¡ò": 5426,
      "ǘx": 5427,
      "ȸ[": 5428,
      "¡ð": 5429,
      "ǣO ": 5430,
      "ǉũ": 5431,
      "¤": 5432,
      "ǉŋ": 5433,
      "ǣM": 5434,
      "¿": 5435,
      "ǉŞ": 5436,
      "¡ǥG": 5437,
      "Ǩ>¡ǨE¡": 5438,
      "Å": 5439,
      "ǫM": 5440,
      "ȒV": 5441,
      "ȞW": 5442,
      "³": 5443,
      "Ǜk": 5444,
      "ǉōæ": 5445,
      "ǉŃǉō": 5446,
      "ǣQ": 5447,
      "û": 5448,
      "ò": 5449,
      "¡ǣJ": 5450,
      "Ǎ`": 5451,
      "Ǻ:": 5452,
      "ȎS": 5453,
      "ǉţ": 5454,
      "ä": 5455,
      "ǉŘ¥": 5456,
      "ǚP": 5457,
      "ǫ9 ": 5458,
      "ǨG¡": 5459,
      "¸": 5460,
      "Í": 5461,
      "ë": 5462,
      "ǉŎ": 5463,
      "ǉō": 5464,
      " ǉŋ": 5465,
      "¡ǣQ": 5466,
      "ǉś": 5467,
      "ǉŘ": 5468,
      "ȮX": 5469,
      "ä": 5470,
      "ǉň": 5471,
      "ǋ.": 5472,
      "ȃ5": 5473,
      "Ȇ_": 5474,
      "¡ǉŨ": 5475,
      " ǉŘ": 5476,
      "ǉňǉō": 5477,
      "ǉŏ": 5478,
      "¡ǣS": 5479,
      "ȈA": 5480,
      "%ɒÞǉő": 5481,
      "õ": 5482,
      "ù": 5483,
      "¡ǉŖ": 5484,
      " ö": 5485,
      "¡ò": 5486,
      "Ǻ?": 5487,
      "ǣO": 5488,
      "¡ǉņ": 5489,
      "ǟK": 5490,
      "ǥQ": 5491,
      "¡ǣO": 5492,
      "ǉŋ": 5493,
      "úǉŇ": 5494,
      "¡ǉŘ": 5495,
      "ǊO¡": 5496,
      "ǉŔ": 5497,
      "ǸM": 5498,
      "ä": 5499,
      "ê": 5500,
      "­ǉŇ": 5501,
      "¡ǉō¡": 5502,
      "ǟJ": 5503,
      "Ȏ`": 5504,
      "¤ǉō": 5505,
      "æǉŉǉō": 5506,
      "Ǎb": 5507,
      "Ǖa": 5508,
      "¡ǉŞ": 5509,
      "ǐZ": 5510,
      "ǉŘ": 5511,
      "ȪP": 5512,
      "û": 5513,
      "¡ǢT": 5514,
      "ǉŉ": 5515,
      "ȞR": 5516,
      "ȞX": 5517,
      "ǢH¥": 5518,
      "©ǉŇ": 5519,
      "ȲO": 5520,
      "ǉń": 5521,
      " ǢX": 5522,
      "ǉŇǉō": 5523,
      "¡ǫ6": 5524,
      "ë": 5525,
      "ã": 5526,
      "ǉŢ": 5527,
      "ǭW": 5528,
      "Ǽ_": 5529,
      "ȃC": 5530,
      "¡æ": 5531,
      "ȉH": 5532,
      "ǉŞ": 5533,
      "¥ǉŇ": 5534,
      "ǉŕ": 5535,
      "ǉŔǉřǉŜ": 5536,
      "·": 5537,
      "¡ǧE¡ǧJ": 5538,
      "ǉŞ": 5539,
      "ǍG": 5540,
      "Ǽb": 5541,
      "ǾE": 5542,
      "ȣW": 5543,
      "ǣL": 5544,
      "ȮY": 5545,
      "ǣH": 5546,
      "¡ǉŋ": 5547,
      "¡ǉŋ": 5548,
      "ǣJ": 5549,
      "ȤC": 5550,
      "ǉņǉŘ": 5551,
      "ǰ+": 5552,
      "ǣE": 5553,
      "ǉŖ": 5554,
      "ǉŔ": 5555,
      "ǢJ¥": 5556,
      "Ǌq": 5557,
      "Ǐb": 5558,
      "ǊQ": 5559,
      "ǉų": 5560,
      "¡ǣO": 5561,
      "¾": 5562,
      "ǉš": 5563,
      "ǐ<": 5564,
      "ü": 5565,
      "Ǒ]": 5566,
      "ǫ0¡": 5567,
      "Ǩ> ": 5568,
      "¨": 5569,
      "³": 5570,
      "¶": 5571,
      "ǣQ": 5572,
      "ǉũ": 5573,
      "¢î": 5574,
      "ǉōǉř": 5575,
      "ǣc": 5576,
      "¡ǣF": 5577,
      "ü": 5578,
      "ȂL": 5579,
      "%ɒÞǭ:": 5580,
      "ǊżǊJ": 5581,
      "ǉś": 5582,
      "ǯ@": 5583,
      "à": 5584,
      "¡ǉō¡": 5585,
      "ǉņǉő": 5586,
      "ǱH": 5587,
      "ȥV": 5588,
      "³": 5589,
      "ǣL": 5590,
      "%ɒÞǫ8": 5591,
      "ǧd": 5592,
      "ȎT": 5593,
      " ǉŇ": 5594,
      "Țb": 5595,
      "Ȯb": 5596,
      "%ɒÞǊJ": 5597,
      "§": 5598,
      "ǉų": 5599,
      "ǪV": 5600,
      "ȣI": 5601,
      "ȨO": 5602,
      "ì": 5603,
      "ǉň": 5604,
      "ǣJ": 5605,
      "ȶY": 5606,
      "ñ": 5607,
      "ð": 5608,
      "ê": 5609,
      "ǋV¥": 5610,
      "·": 5611,
      "ǉő": 5612,
      "ȇC": 5613,
      "¾": 5614,
      " ǉŞ": 5615,
      "¡ǉŉ": 5616,
      "ä": 5617,
      "ǦC¡": 5618,
      "ǧE¡": 5619,
      "¹": 5620,
      "Ǣ[": 5621,
      "ã": 5622,
      "¡â": 5623,
      "ø": 5624,
      "¹": 5625,
      "ǉŐ": 5626,
      "ǠR": 5627,
      "ǉš": 5628,
      "ǉŏ": 5629,
      "ȉK": 5630,
      "¡ȍ": 5631,
      "ǉŴ": 5632,
      "%ɒÞǊH": 5633,
      "ý": 5634,
      "º": 5635,
      "¶": 5636,
      "ȟS": 5637,
      "ȳC": 5638,
      "ȳG": 5639,
      "%ɒÞǭ.": 5640,
      "¡ǣL": 5641,
      "ǨJ": 5642,
      "®": 5643,
      "ǊT¥": 5644,
      "ǨA¡": 5645,
      "¸": 5646,
      "ț:": 5647,
      "¡æ": 5648,
      "ù": 5649,
      " ü": 5650,
      "ǣM": 5651,
      "ǉŖ": 5652,
      "¡ǣQ": 5653,
      "ȂN": 5654,
      "¢ǉō": 5655,
      "Ǯ.": 5656,
      "ǉņǉō": 5657,
      "è": 5658,
      "ǉţǉŤ": 5659,
      "ǉũ": 5660,
      "ǉō": 5661,
      "»": 5662,
      "Ý": 5663,
      "ǉŞ": 5664,
      "Ǥ5": 5665,
      "ȎZ": 5666,
      "ǉņǉō": 5667,
      "ǣJ": 5668,
      "ß": 5669,
      "è": 5670,
      "ǨO¡": 5671,
      "¡": 5672,
      "ǧJ": 5673,
      "¡ǧI": 5674,
      "¡ǉŇ¡ǉő": 5675,
      "ó": 5676,
      "ü": 5677,
      "ǰV": 5678,
      "¡ǉŏ": 5679,
      "ǊQ¡": 5680,
      "¥ǉŇ": 5681,
      "ǣS": 5682,
      "ǝX": 5683,
      "ǸU": 5684,
      "Ȁb": 5685,
      "ȉW": 5686,
      "ȨM": 5687,
      " ǉŋ": 5688,
      "ǉŀ": 5689,
      "è": 5690,
      "%ɒÞǫ+": 5691,
      "è": 5692,
      "ß": 5693,
      "¢ǉŏ": 5694,
      "ǥżǥK": 5695,
      "¡ǣM": 5696,
      "²": 5697,
      "Ǥ0": 5698,
      "Ɖ": 5699,
      " ǉŇ": 5700,
      "Å": 5701,
      "ǳV": 5702,
      "ǣQ": 5703,
      "¡ǣN": 5704,
      "ø": 5705,
      "ǉŞ": 5706,
      "ǩQ": 5707,
      "ǧG": 5708,
      "ǉŉǉō": 5709,
      "¢ú": 5710,
      "ǣL": 5711,
      "ǉš": 5712,
      "é": 5713,
      "ǣQ": 5714,
      "Ý": 5715,
      "ǐF": 5716,
      "ǝU": 5717,
      "Ǹ^": 5718,
      "Ț_": 5719,
      "ǨC": 5720,
      "Ǥ2": 5721,
      "¡ǉŊ": 5722,
      "ǉŦ": 5723,
      "ý": 5724,
      "Ǯ1": 5725,
      "ȨY": 5726,
      "¡ǉő": 5727,
      "µ": 5728,
      "ǉŔ": 5729,
      "ǦC": 5730,
      "ǣ": 5731,
      "ǉŞ": 5732,
      "·": 5733,
      "¡ǣI": 5734,
      "ì": 5735,
      "¡ǣR¡": 5736,
      "¡ǉŋ": 5737,
      "ǠN": 5738,
      "ǣH": 5739,
      "ǣL": 5740,
      "ǣM": 5741,
      "ǉņǉŏ": 5742,
      " ǧ>": 5743,
      "ǨG": 5744,
      "¡ǤJ": 5745,
      "ǉ": 5746,
      "ǣJ": 5747,
      "é": 5748,
      "ǉš": 5749,
      "ǊV": 5750,
      "Í": 5751,
      "¶": 5752,
      "Ǣ7": 5753,
      "ö": 5754,
      "¡ǣO": 5755,
      "ǋj": 5756,
      "ǟN": 5757,
      "Ǭ)": 5758,
      "ǽS": 5759,
      "å": 5760,
      "ë": 5761,
      "ë": 5762,
      "â": 5763,
      "®": 5764,
      "¡ǣM": 5765,
      " ǉŖ": 5766,
      "ǜP": 5767,
      "ǸY": 5768,
      "ȇG": 5769,
      "Ȍ]": 5770,
      "¡ǨI": 5771,
      "ǉś": 5772,
      "ǉōǉř": 5773,
      "¡ǉō¡": 5774,
      "ǉŏ": 5775,
      "¡ǣJ": 5776,
      "¡ǉŜ": 5777,
      "ǫ7¡": 5778,
      "ǲ^": 5779,
      "ǉō": 5780,
      "ã": 5781,
      "Ǯ:": 5782,
      "¥ǣQ": 5783,
      "æ": 5784,
      "ǷQ": 5785,
      " ǉŚ": 5786,
      "ó": 5787,
      "¥ǉŉ": 5788,
      "¡ǉŋ¡ǉő": 5789,
      "ǣL": 5790,
      "ǭR": 5791,
      "ǣJ": 5792,
      "à": 5793,
      " ǉő": 5794,
      "ǫ7¡": 5795,
      "ǉŇǉō": 5796,
      "ǢżǢK": 5797,
      "ǽH": 5798,
      "¡ǫ9": 5799,
      " æ": 5800,
      "°": 5801,
      "°": 5802,
      "ȤG": 5803,
      "ǣL": 5804,
      "¡ǉŨ": 5805,
      "ü": 5806,
      "¡ǧS": 5807,
      "ǉň": 5808,
      "ȳR": 5809,
      "ñ": 5810,
      "ð": 5811,
      "¡ǣM": 5812,
      "Ý": 5813,
      "ǶT": 5814,
      "ǦC": 5815,
      "ǉŠ": 5816,
      "î": 5817,
      "å": 5818,
      "ǠZ": 5819,
      "ǺB": 5820,
      "Ɖ": 5821,
      "ǉņǉő": 5822,
      "ù": 5823,
      "êǫ5": 5824,
      "Ì": 5825,
      "ǽY": 5826,
      "~£": 5827,
      "äǉŏ": 5828,
      "ǝQ": 5829,
      "ǉŇǉő": 5830,
      "ó": 5831,
      "ǊŽ": 5832,
      "ȒQ": 5833,
      "ǚŻ": 5834,
      "ǥT": 5835,
      "ü": 5836,
      "ǉő": 5837,
      "¡ǦH": 5838,
      "¥ǢL": 5839,
      "ë": 5840,
      "ǉő": 5841,
      "ǉ": 5842,
      "ǉŦ": 5843,
      "ǯA": 5844,
      "ȮO": 5845,
      "¡â": 5846,
      "¡ǣT": 5847,
      "ȥY": 5848,
      "¡ǉņ": 5849,
      "ǊN": 5850,
      "ǼC": 5851,
      "%ɒÞƷ": 5852,
      "%ɒÞǊA": 5853,
      "ǣR": 5854,
      "ô": 5855,
      "%Ɏ": 5856,
      "ǉŮ": 5857,
      "ǣM": 5858,
      "ǉŊ": 5859,
      "¢ú": 5860,
      "»": 5861,
      "ǫ2¡": 5862,
      "ǣO": 5863,
      "ǠW": 5864,
      "ï": 5865,
      "ǉŔ": 5866,
      "ǪY": 5867,
      "Ǹa": 5868,
      "¡ä": 5869,
      "ǊC": 5870,
      "¡ǉŇ": 5871,
      "ǉŔ": 5872,
      "¾": 5873,
      "¡ǨA": 5874,
      " ǉũ": 5875,
      "Ǩ9¡": 5876,
      "ǉň": 5877,
      "ǥO": 5878,
      "ô": 5879,
      " î": 5880,
      " æ": 5881,
      "ǧJ¡": 5882,
      "ǉņǉŉ": 5883,
      "ȒX": 5884,
      "¡ǣJ": 5885,
      "¥ǉō": 5886,
      "ǉš": 5887,
      "¡ǉŞ": 5888,
      "ǫ2 ": 5889,
      "¡ǉņ": 5890,
      "öǉŏ": 5891,
      "Ǳ@": 5892,
      "ǉŇǉŖ": 5893,
      "Å": 5894,
      "ȌA": 5895,
      "¡ǣA": 5896,
      "ǉő": 5897,
      "õǉŉ": 5898,
      "ǐb": 5899,
      "ǡQ": 5900,
      "¹": 5901,
      "»": 5902,
      "ǸR": 5903,
      "ó": 5904,
      "ǉũ": 5905,
      "Ì": 5906,
      "ǉũ": 5907,
      "ȚW": 5908,
      "ȭ]": 5909,
      "ǷS": 5910,
      "¡ǫ.": 5911,
      " ǉŉ": 5912,
      "ǉŠ": 5913,
      "ß": 5914,
      "ø": 5915,
      "ǴC": 5916,
      "ǊO": 5917,
      "â": 5918,
      "¡ǣH": 5919,
      "ǳO": 5920,
      "ã": 5921,
      "ǊL¡": 5922,
      "ǥL¡": 5923,
      "Ȼp": 5924,
      "ȻpȽ": 5925,
      "ǸO": 5926,
      "%ɒÞǪ>": 5927,
      "ǉŇǉō": 5928,
      "Ǥ/": 5929,
      "ǧU": 5930,
      "¢ǉŉ": 5931,
      "¶": 5932,
      "ǝ_": 5933,
      "ú": 5934,
      "ǚG": 5935,
      "Ǡ^": 5936,
      "ǣJ": 5937,
      "ë": 5938,
      "ǫX": 5939,
      "ý": 5940,
      "ì": 5941,
      "ǉňǉō": 5942,
      "ǥżǥF": 5943,
      "ǰU": 5944,
      " ǉő": 5945,
      "¤ǉō": 5946,
      "ǧE": 5947,
      "ǚk": 5948,
      "Ǥb": 5949,
      "ȭS": 5950,
      "ǉŋ": 5951,
      "¸": 5952,
      "ǉŵ": 5953,
      "ȡb": 5954,
      "Ǥ7": 5955,
      "ǣQ": 5956,
      "ǊR¡": 5957,
      "ǨG¡": 5958,
      "ǉŇ¥": 5959,
      "ǉũ": 5960,
      "ǉŊ": 5961,
      "%ɒÞǭ/": 5962,
      "è": 5963,
      "ǉš": 5964,
      "ǉŞ": 5965,
      "ǉŖ": 5966,
      "ǫ4¢": 5967,
      "ǣO": 5968,
      "°": 5969,
      "¡ǥN": 5970,
      "ǢJ": 5971,
      "¼": 5972,
      "¡ǣL": 5973,
      "ǣO": 5974,
      "à": 5975,
      "ǢT¥": 5976,
      "ǥ=¡": 5977,
      "ǉŭ": 5978,
      " Ɖ": 5979,
      "ǊO¡": 5980,
      "ú": 5981,
      "Ǥ-": 5982,
      "ɀJ": 5983,
      "ø": 5984,
      "¢ò": 5985,
      "ǊQ¥": 5986,
      "ǫ5": 5987,
      "ö": 5988,
      "¡ǣJ": 5989,
      "ǿb": 5990,
      "ǿF": 5991,
      "½": 5992,
      "Å": 5993,
      "°": 5994,
      "ǣe": 5995,
      "ȲT": 5996,
      "%ɒÞǭ8": 5997,
      "ǢH¡": 5998,
      "ǉŇǉŇ": 5999,
      " ǉő ": 6000,
      "¡ǣJ": 6001,
      "ǝS": 6002,
      "¡ǧB¡": 6003,
      " ǉŉ": 6004,
      "¡ǉŵ": 6005,
      "ǥQ": 6006,
      "ó": 6007,
      "ǣO": 6008,
      "Ǒż": 6009,
      "âǉō": 6010,
      "ǊT": 6011,
      "ǉň": 6012,
      " î": 6013,
      "ǋk": 6014,
      "Ǔ]": 6015,
      "ǥb": 6016,
      " ǉņ": 6017,
      "ǉŴ": 6018,
      "Ǥ4": 6019,
      "¡ǉň": 6020,
      " ǉŇ": 6021,
      "ǉũ": 6022,
      "²": 6023,
      "´": 6024,
      "åǉř": 6025,
      "ȊS": 6026,
      "¡ǣK": 6027,
      "º": 6028,
      "ûǉŋ": 6029,
      "Ȉ<": 6030,
      "ȊR": 6031,
      "ǨE": 6032,
      "ǉŖ": 6033,
      "¡ǉŏ": 6034,
      " æ": 6035,
      "ä": 6036,
      "¬": 6037,
      "í": 6038,
      "ǛK": 6039,
      "¡ǥT": 6040,
      "ǐd": 6041,
      "¡ü": 6042,
      "ǣO¢": 6043,
      "ǉŜ": 6044,
      "ǨN¡": 6045,
      " ǉŇ ": 6046,
      "ñǉŉ": 6047,
      "ǶV": 6048,
      "¡ǧF": 6049,
      " ǧE ": 6050,
      " ǉř": 6051,
      "úǉō": 6052,
      "¡ǉŏ¡": 6053,
      "ǎ:": 6054,
      "é": 6055,
      "ǉņǉō": 6056,
      " ö": 6057,
      "ǭ7¤": 6058,
      "ǉņǉŋ": 6059,
      "ǖ^": 6060,
      "¡ǨB": 6061,
      "î": 6062,
      "Å": 6063,
      "ǉţ": 6064,
      "¡ǉň": 6065,
      "ǧQ ": 6066,
      "ǉŊ": 6067,
      "Å": 6068,
      "ǉņǉō": 6069,
      "í": 6070,
      "ǉų": 6071,
      "ǣQ": 6072,
      "ǷJ": 6073,
      "ù": 6074,
      "¡ǉŌ": 6075,
      "õ": 6076,
      "­ǉŗ": 6077,
      "¾": 6078,
      "¯": 6079,
      "ǸZ": 6080,
      "ǣM": 6081,
      "ð": 6082,
      "Ȅ<": 6083,
      "¡ǉŏ": 6084,
      "ǉō": 6085,
      "ǉř": 6086,
      "ǣJ": 6087,
      "ǣŽ": 6088,
      "¡ô": 6089,
      "ǥO": 6090,
      "ǉŞǉŞ": 6091,
      "ǉŐ": 6092,
      "²": 6093,
      "Ȉb": 6094,
      "¡ǉŋ": 6095,
      "ä": 6096,
      "ǢH¡": 6097,
      "¡ǣN": 6098,
      "ǉň": 6099,
      "ã": 6100,
      "ǉņǉōǉŖ": 6101,
      "ǋh": 6102,
      "Ǧ3": 6103,
      "Ǳ3": 6104,
      "¡ǣM": 6105,
      "á": 6106,
      "ǫ5 ": 6107,
      "ǢQ¢": 6108,
      "ǉŵ": 6109,
      "ǉō¡": 6110,
      "¡ǣL": 6111,
      "õ": 6112,
      "¡ǧD": 6113,
      "ǉŇ": 6114,
      "ǉś": 6115,
      "¡ǣS": 6116,
      "ǣƁ": 6117,
      "ǧc": 6118,
      "¡ǣK": 6119,
      "ǉś": 6120,
      "ǔV": 6121,
      "ǟL": 6122,
      "ȭR": 6123,
      "¡ǉŔ": 6124,
      "âǉō": 6125,
      "ǢŻǢL": 6126,
      "ǉŉ": 6127,
      "ǉŊ": 6128,
      "ǉũ": 6129,
      "è": 6130,
      "¡ǣQ": 6131,
      "ǉŘ": 6132,
      "¡ǧG": 6133,
      "¡ǨD": 6134,
      "ï": 6135,
      "ì": 6136,
      "±": 6137,
      "ȒY": 6138,
      "¡ǨF": 6139,
      "¥Ǣ@": 6140,
      "ǉň": 6141,
      "ȨT": 6142,
      "ǉő": 6143,
      " ǉŖ": 6144,
      "¢ö": 6145,
      "¸": 6146,
      "Ɖë": 6147,
      "÷": 6148,
      "ü": 6149,
      "ȉI": 6150,
      "ǫ7¡": 6151,
      "ǏżǏJ": 6152,
      "ț_": 6153,
      "ǥY": 6154,
      "ǉŵ": 6155,
      "~ǉō": 6156,
      "ǉŞ": 6157,
      "ǖ_": 6158,
      " Ɖö": 6159,
      "ǣO": 6160,
      "¡ǧI¡": 6161,
      "ǹ@": 6162,
      "ȈG": 6163,
      "ȉU": 6164,
      " ǉŜ": 6165,
      "ì": 6166,
      "ö": 6167,
      "ǣŻǣQ": 6168,
      "²": 6169,
      "±": 6170,
      "ǣQ": 6171,
      "¡ǨF": 6172,
      "æ": 6173,
      "¼": 6174,
      "Ǥ=": 6175,
      "ǉŇ ǉŉ": 6176,
      "ǉŠ": 6177,
      "ȶV": 6178,
      "é": 6179,
      "ǉŋ": 6180,
      "ȸT": 6181,
      "ñ": 6182,
      "ñ": 6183,
      "ù": 6184,
      "ë": 6185,
      "¡ǉŖ": 6186,
      "ǧH": 6187,
      "¡ǣM": 6188,
      " ǉŘ": 6189,
      "ǉŋ": 6190,
      "Ý": 6191,
      "ǣT": 6192,
      "¡ǣM": 6193,
      "ǦE": 6194,
      "ǦH¡": 6195,
      "Ì": 6196,
      "ȅV": 6197,
      "Ț\\": 6198,
      "é": 6199,
      "â": 6200,
      "ǉō": 6201,
      "ª": 6202,
      "ǉŔ": 6203,
      "¿": 6204,
      "ǣO¥": 6205,
      "ǉōâ": 6206,
      "ǉőǉŔǉŜ": 6207,
      "ǣJ": 6208,
      "Ì": 6209,
      "òǉř": 6210,
      "ǥ5": 6211,
      "¡ǉŌ": 6212,
      "¡ǉũ": 6213,
      "ǨH": 6214,
      "ǢJ¡": 6215,
      "ǉŉ": 6216,
      "ǉŊǉō": 6217,
      "¿": 6218,
      "à": 6219,
      "ǉŉ": 6220,
      "ȨR": 6221,
      "³": 6222,
      "ȢR": 6223,
      "¡ö": 6224,
      "ǉŜ": 6225,
      "ǉŐ": 6226,
      "Ȕ]": 6227,
      "ȣE": 6228,
      "%ɒÞǉř": 6229,
      "âǉō": 6230,
      "Ý": 6231,
      "ǬT": 6232,
      "ȈC": 6233,
      "ȕJ": 6234,
      "ï": 6235,
      "ô": 6236,
      "¡ǉō": 6237,
      "ǎ@": 6238,
      "ǉŇǉō": 6239,
      "ǉŜ": 6240,
      "ǣH": 6241,
      "¡ǣL": 6242,
      "ǭY": 6243,
      " ø": 6244,
      "¡â": 6245,
      "¾": 6246,
      "ǋl": 6247,
      "ȃE": 6248,
      "Ǌ[": 6249,
      "ǉŸ": 6250,
      "ì": 6251,
      "²": 6252,
      "ǉņǉō": 6253,
      "%ɒÞǭ6": 6254,
      "ǥŻǥR": 6255,
      "Å": 6256,
      "ǉŌ": 6257,
      "ì": 6258,
      "ǊżǊO": 6259,
      "Ǭ_": 6260,
      "ǫ9¡": 6261,
      "¸": 6262,
      "¡ǫ5": 6263,
      " ǣQ": 6264,
      "ǣM": 6265,
      "ǉŘ": 6266,
      "¾": 6267,
      "ȞU": 6268,
      "ǣQ": 6269,
      "ǤżǤH": 6270,
      "Ǌ+ǊC": 6271,
      "ǉŶ": 6272,
      "Ì": 6273,
      "%ɒÞƶ": 6274,
      "¨": 6275,
      "ǻA": 6276,
      "Ȃż": 6277,
      "ǣJ": 6278,
      "á": 6279,
      "ǥV": 6280,
      "ǉř": 6281,
      "íǉŋ": 6282,
      "ǡR": 6283,
      "ȡ^": 6284,
      "¡ǣN": 6285,
      "ǥQ": 6286,
      "¡î": 6287,
      "ǣL": 6288,
      "¥ǉŖ": 6289,
      "ü": 6290,
      "ǚf": 6291,
      "¡ǉŘ": 6292,
      " ǣV ": 6293,
      "å": 6294,
      "¡æ": 6295,
      "ǉōǉř": 6296,
      "¡ǣO": 6297,
      "żǣH": 6298,
      "ȎO": 6299,
      "ǊQ¥": 6300,
      "å": 6301,
      "¡ǉő": 6302,
      "ȻpȽp": 6303,
      "ȳU": 6304,
      "ǣL": 6305,
      "ǨE¥": 6306,
      "ǰI": 6307,
      "ǉő": 6308,
      "ȢW": 6309,
      "¥ǉŇ": 6310,
      "ǥO": 6311,
      "ȡ_": 6312,
      "%ɒÞǊ5": 6313,
      "ǨJ": 6314,
      "ü": 6315,
      "ǣH¥": 6316,
      "ǭ5¡": 6317,
      "ǣſ": 6318,
      "ǉō": 6319,
      "ǉň": 6320,
      " ǉŋ ǉō ": 6321,
      "ǭL": 6322,
      "ǥM": 6323,
      "ó": 6324,
      "ǉōð": 6325,
      "ǉř": 6326,
      "ǉŖ": 6327,
      "ǣM": 6328,
      " ê": 6329,
      "ê": 6330,
      "ǉň": 6331,
      "ȼZ": 6332,
      "ǊQ": 6333,
      "ǜ9": 6334,
      "ǧH¥": 6335,
      "®": 6336,
      "ȅT": 6337,
      "ȳK": 6338,
      "ǉōø": 6339,
      "ǉš": 6340,
      "+ȝ": 6341,
      "òǉŉ": 6342,
      "ȁc": 6343,
      "ȝ+ȝ": 6344,
      "ó": 6345,
      "¡â": 6346,
      "ü": 6347,
      "ǫ7": 6348,
      "ǊV¡": 6349,
      "¢ǉŉ": 6350,
      "ȝ+ȝ7": 6351,
      "¡ǣO": 6352,
      "ǉņ": 6353,
      "ǥQ": 6354,
      "ǊO": 6355,
      "ü": 6356,
      "³": 6357,
      "ǥJ¡": 6358,
      "Í": 6359,
      "·": 6360,
      "ãǉř": 6361,
      "ǸJ": 6362,
      "û": 6363,
      "ǉŒ": 6364,
      "¡ǣ": 6365,
      "ǚE": 6366,
      "Ǯ;": 6367,
      "Ǽc": 6368,
      "ȚR": 6369,
      "í": 6370,
      "¢ǉŇ": 6371,
      "ǉō": 6372,
      "ǎD": 6373,
      "ǫ9¡": 6374,
      "ǉŏ": 6375,
      "¡ǉř": 6376,
      "ǣT": 6377,
      "Ȋ[": 6378,
      "ȋC": 6379,
      "å": 6380,
      "¡ǣL": 6381,
      "Ǹ[": 6382,
      "ȃ<": 6383,
      "øǉō": 6384,
      "ǉŐ": 6385,
      "¡ǉŋ": 6386,
      "¡ǣT": 6387,
      "ȞE": 6388,
      "è": 6389,
      "¤ǉŉ": 6390,
      "ǓS": 6391,
      "ǣH": 6392,
      "û": 6393,
      "ǊM¡": 6394,
      "ǢJ¡": 6395,
      "ǉŇǉŉ": 6396,
      "ǉŏ": 6397,
      "ǣH": 6398,
      "ǽL": 6399,
      "ȜP": 6400,
      "ñ": 6401,
      "ǊT": 6402,
      "¡ò": 6403,
      "Ǯ>": 6404,
      "û": 6405,
      "ǊV": 6406,
      "¤ǉņ": 6407,
      "æǉŏ": 6408,
      "Ǖd": 6409,
      "ǌg": 6410,
      "ǝY": 6411,
      "ǣN": 6412,
      "ȍ": 6413,
      "ǊO": 6414,
      "ǉů": 6415,
      "ȶR": 6416,
      "ð": 6417,
      " î": 6418,
      "¡â": 6419,
      "ǣM ǣQ ": 6420,
      "ǊR¢": 6421,
      "ǉŇǉō": 6422,
      "¡ǉņǉŇ": 6423,
      "¡ǣM": 6424,
      "Ǹ_": 6425,
      "ȄH": 6426,
      "ù": 6427,
      "èǉō": 6428,
      "à": 6429,
      "¨ǉŇ": 6430,
      "ǉņǉŔ": 6431,
      "Ȥ<": 6432,
      "ǣJ": 6433,
      "û": 6434,
      "¡ǨF": 6435,
      "ǉš": 6436,
      "¡ǣJ": 6437,
      "ǊT": 6438,
      "´": 6439,
      "¸": 6440,
      "ȨV": 6441,
      "ǦżǦH": 6442,
      "¶": 6443,
      "ǷW": 6444,
      "ȸX": 6445,
      "ã": 6446,
      "ǣH": 6447,
      "¢ê": 6448,
      "ǉŏ": 6449,
      "ǣR": 6450,
      "¥ǣO¥": 6451,
      "ǉŋ": 6452,
      "÷ǉŉ": 6453,
      "ǸW": 6454,
      " ê": 6455,
      "ǉŨ": 6456,
      "ì": 6457,
      "ǫ-¡": 6458,
      "ǉŉǉōǉŖ": 6459,
      "ǉũ": 6460,
      "º": 6461,
      "ǣH": 6462,
      "²": 6463,
      "%ɒÞǣ>": 6464,
      "ǣŻǣL": 6465,
      "ǣR": 6466,
      "­": 6467,
      "ǣJ": 6468,
      "ß": 6469,
      " æ": 6470,
      "£ǉō": 6471,
      "ǢM": 6472,
      "ǜC": 6473,
      "ǹ>": 6474,
      "ý": 6475,
      "ǉŠ": 6476,
      "¡ǣE": 6477,
      "ǊJ¥": 6478,
      "¥ö": 6479,
      "ǰ. ": 6480,
      "¡ǣH": 6481,
      "îǫ7": 6482,
      "¡ǫ2": 6483,
      "Ǩ9": 6484,
      "¡ǧB¡ǧG": 6485,
      "äǉŨ": 6486,
      "ǡS": 6487,
      "Ȟ9": 6488,
      "é": 6489,
      " ú": 6490,
      "·": 6491,
      "ȤI": 6492,
      "ǥQ": 6493,
      "£ú": 6494,
      "ǣN": 6495,
      "ǉř": 6496,
      "ǉŞ": 6497,
      "ǉŞ": 6498,
      "ǥT": 6499,
      "Ȏ_": 6500,
      "ǣT": 6501,
      "ǉŉ": 6502,
      "ǭQ": 6503,
      "%ɒÞǊ:": 6504,
      "í": 6505,
      "ǦC": 6506,
      "¡ǉŖ": 6507,
      "ǣO": 6508,
      "õ": 6509,
      "ǦJ": 6510,
      "ǥT": 6511,
      "ǉō": 6512,
      "¥ǉō": 6513,
      "ǉŋ": 6514,
      "¡ǣH": 6515,
      "ǘw": 6516,
      "ǚi": 6517,
      "é": 6518,
      "ǣM": 6519,
      "ã": 6520,
      "ǉŋ": 6521,
      "àǉŉ": 6522,
      "ȊX": 6523,
      "ǥQ": 6524,
      " æ": 6525,
      "£ê": 6526,
      "¡ǉř": 6527,
      "¡ǊO": 6528,
      "ǉŨ": 6529,
      "îǉŏ": 6530,
      "ǷM": 6531,
      "ǉŸ": 6532,
      " ǉő ": 6533,
      "¡ǣS": 6534,
      "¼": 6535,
      "ǾF": 6536,
      "ȃA": 6537,
      "ǉŇǉŋ": 6538,
      "ǣO": 6539,
      "ǉś": 6540,
      "ȥX": 6541,
      "ý": 6542,
      "ǊJ": 6543,
      "ǉŶ": 6544,
      "Ƿ_": 6545,
      "ǊV": 6546,
      "ǢE": 6547,
      " ö": 6548,
      "¢â": 6549,
      "ǉŨ": 6550,
      "¢ǋQ¢": 6551,
      "ǯ/": 6552,
      "ǥQ": 6553,
      " ú": 6554,
      " ö": 6555,
      "Ǿb": 6556,
      "ǉŇ¡ǉō": 6557,
      "û": 6558,
      "¡ö": 6559,
      "ǉũ": 6560,
      "­ǉō": 6561,
      "ǉţ": 6562,
      "Ǎ^": 6563,
      "ǥŻǥJ": 6564,
      "¡ǣH": 6565,
      " ǣL": 6566,
      "¡ǉő": 6567,
      "ǣżǣL": 6568,
      "ǉũ": 6569,
      "ǘz": 6570,
      "ǡż": 6571,
      "Ǣb": 6572,
      "ǷH": 6573,
      "¡ǉŘ": 6574,
      "ǧL ": 6575,
      "ǉŴ": 6576,
      "à": 6577,
      "¥ú": 6578,
      "ǥE¡": 6579,
      "¡ǉņ¡ǉō¡": 6580,
      "ǉŇǉōò": 6581,
      "ǉņǉŋ": 6582,
      "ȜS": 6583,
      "¡ǣT": 6584,
      " î": 6585,
      "¡ǉő¡": 6586,
      "³": 6587,
      "¸": 6588,
      "øǉŋ": 6589,
      "ȡ2": 6590,
      "ǊH¡": 6591,
      "ǉŔ": 6592,
      "äǉũ": 6593,
      "âǉō": 6594,
      "ï": 6595,
      "ǙO": 6596,
      "¸": 6597,
      "ǩJ": 6598,
      "ȜK": 6599,
      "ȨL": 6600,
      "ȨN": 6601,
      "ǊT": 6602,
      "ǉņǉŖ": 6603,
      "ǉś": 6604,
      "òǉŖ": 6605,
      "Ǻ;": 6606,
      "ï": 6607,
      "ǥO": 6608,
      "ǦJ¡": 6609,
      "ǧL ": 6610,
      "ǉŠ": 6611,
      "¡ǣL": 6612,
      "Ɖß": 6613,
      "ȡ4": 6614,
      "à": 6615,
      "£æ": 6616,
      "æ": 6617,
      "ǉů": 6618,
      "ǉŰ": 6619,
      "ǝR": 6620,
      "ȨJ": 6621,
      "%ɒÞǭ1": 6622,
      " ê": 6623,
      "ǨQ¡": 6624,
      "ǉŨ": 6625,
      "¶": 6626,
      "ǻi": 6627,
      "ã": 6628,
      "Ǩ<¡ǨC": 6629,
      "æǉŋǉō": 6630,
      "¡ǧA": 6631,
      " Ɖî": 6632,
      "ǣQ": 6633,
      " ǉŉ": 6634,
      "ê": 6635,
      "ǷS": 6636,
      "ǉŠ": 6637,
      "ǉŐ": 6638,
      "Ȁż": 6639,
      "%ɒÞǣC": 6640,
      "¥ǣE": 6641,
      "%ɎÞ": 6642,
      "ǉņ": 6643,
      "ɀ<": 6644,
      "ó": 6645,
      " ö": 6646,
      "ǫ0": 6647,
      "¦": 6648,
      "¡ǣL": 6649,
      "Ǧc": 6650,
      "ǬQ": 6651,
      "ǫ4": 6652,
      "ù": 6653,
      "ǣJ": 6654,
      "Ɖ": 6655,
      "â": 6656,
      "Ȅ?": 6657,
      "ǭ9¡": 6658,
      "ǧS ": 6659,
      "¡ǨG¡": 6660,
      "Ȝd": 6661,
      "ǉŞ": 6662,
      "ȥM": 6663,
      "ǉŔ": 6664,
      "ǉőǉř": 6665,
      "¾": 6666,
      "¡ǣR": 6667,
      "º": 6668,
      " è": 6669,
      " ǉř": 6670,
      "ì": 6671,
      "î": 6672,
      "ǧN¡": 6673,
      "ǉň": 6674,
      "ȂH": 6675,
      "ǣJ": 6676,
      "ü": 6677,
      "Ǎ7": 6678,
      "ǫ2¡": 6679,
      "ö": 6680,
      "£ǉō": 6681,
      "ǋS¥": 6682,
      "¿": 6683,
      "%ɒÞǱ2": 6684,
      "¡ǉŨ": 6685,
      "ǊT¡": 6686,
      "¥ê": 6687,
      "ǉŊ": 6688,
      "ǣƂ": 6689,
      "¥Ǵ": 6690,
      "ǣQ ": 6691,
      "ä": 6692,
      "ôǉŨ": 6693,
      "ǹ=": 6694,
      "ȋD": 6695,
      "¢ǉŉ": 6696,
      "¢ǣX¢ǣ]¢": 6697,
      "ǉŎ": 6698,
      "ȭ[": 6699,
      "¡ǨF": 6700,
      "¡ǧJ¡ǧO": 6701,
      "¡ǧH¡ǧM": 6702,
      "°": 6703,
      "ǘv": 6704,
      "%ɒÞǊC": 6705,
      "ç": 6706,
      "ǣg": 6707,
      "ȉE": 6708,
      "ȍ9": 6709,
      "ȡ?": 6710,
      "%ɒÞǊ7": 6711,
      "ǉŏ": 6712,
      "ǖK": 6713,
      "ȥT": 6714,
      "%ɒÞǉŉ": 6715,
      "%ɒÞǪ4": 6716,
      "ì": 6717,
      " ǉŋ": 6718,
      "È": 6719,
      "ǯ+": 6720,
      "Ǹb": 6721,
      "ȌD": 6722,
      "ç": 6723,
      "¢ǉŋ": 6724,
      "ǉŴ": 6725,
      "å": 6726,
      "Ȩ[": 6727,
      " ǉŉ": 6728,
      "ǣI": 6729,
      "ǉŌ": 6730,
      "ôǉŇ": 6731,
      "ǘu": 6732,
      "ǲb": 6733,
      "ǉŇǉō": 6734,
      "í": 6735,
      "ǣT": 6736,
      "ß": 6737,
      "¥ǣH": 6738,
      "¥ǉņ": 6739,
      "ǥM ": 6740,
      "ǤH¡ǤM¡": 6741,
      "Ȇ\\": 6742,
      "Ɖ": 6743,
      " î": 6744,
      "ǊV": 6745,
      "Ȁa": 6746,
      "ȞY": 6747,
      " ü": 6748,
      "¡ǨG¡": 6749,
      "¡ǣL": 6750,
      " ǣV": 6751,
      "ǥO": 6752,
      "ð": 6753,
      "ǉŊ": 6754,
      "ǥM": 6755,
      "¢æ": 6756,
      "ǉř": 6757,
      "ǫ1¡ǫ=": 6758,
      "ǉŞ": 6759,
      "¡Ȑ": 6760,
      "ǥR": 6761,
      "ǢS¡": 6762,
      "ǢN¡": 6763,
      "ǉř": 6764,
      "¡ǣS": 6765,
      "ǉŇǉō": 6766,
      "ǱB": 6767,
      "ȭJ": 6768,
      "%ɒÞǊO": 6769,
      "õ": 6770,
      "ǣO": 6771,
      "ǥV": 6772,
      "ǥV": 6773,
      "ǉŎ": 6774,
      " ê": 6775,
      " ǉŋ": 6776,
      "ǥ1¡": 6777,
      "ȕK": 6778,
      "ȨW": 6779,
      "Ɖî": 6780,
      "¢ǋM": 6781,
      "¢ǉŏ": 6782,
      "¥ǉŉ": 6783,
      "ǉŇ": 6784,
      "ȀI": 6785,
      "ǣR": 6786,
      "ǧE ": 6787,
      "Ǌo": 6788,
      "ǝT": 6789,
      "ǉŇǉō": 6790,
      "¡ǢO": 6791,
      " ǨJ": 6792,
      "ǭ9¤": 6793,
      "ǽW": 6794,
      "ó": 6795,
      "ǫ2¡": 6796,
      "ǉŇǉō": 6797,
      "¡ǉŨ": 6798,
      "¥î": 6799,
      "¡ê": 6800,
      "ǢH¥": 6801,
      "ǉŉǉōǉŖ": 6802,
      "¡ǣM": 6803,
      "ǔO": 6804,
      "ñ": 6805,
      "ù": 6806,
      "÷": 6807,
      "¤ǉō": 6808,
      "ǉŉǉō": 6809,
      "Ǩ> ǨE ": 6810,
      "¡ǣQ": 6811,
      "ȳP": 6812,
      "ǫ-¡ǉŇ": 6813,
      "Ǩ;¡": 6814,
      "ǥ1¡ǥ=¡": 6815,
      "¡ǣJ": 6816,
      "ȣY": 6817,
      "ß": 6818,
      "ì": 6819,
      "èǉũ": 6820,
      "ǧA": 6821,
      " ǉő": 6822,
      "ø": 6823,
      "ǧQ¡": 6824,
      "Ǩ>": 6825,
      "ǉņǉŉ": 6826,
      "¿": 6827,
      "ǓV": 6828,
      "Ǜf": 6829,
      "ð": 6830,
      "ǉŖ": 6831,
      "Í": 6832,
      "ǶY": 6833,
      " ö": 6834,
      "ǧL¡": 6835,
      "ǉō": 6836,
      "Ǐ?": 6837,
      "ȆZ": 6838,
      "ȩY": 6839,
      "ǉŇǉŉ": 6840,
      "ǥJ": 6841,
      "á": 6842,
      "ý": 6843,
      "ô": 6844,
      "»": 6845,
      "ȨS": 6846,
      "ï": 6847,
      "ǣM": 6848,
      "£ǉŋ": 6849,
      "ò": 6850,
      "ß": 6851,
      "¡ǉř": 6852,
      " ê": 6853,
      "ǨT": 6854,
      "ð": 6855,
      "¥ǉŇ": 6856,
      "ǉ": 6857,
      "ǣL": 6858,
      "í": 6859,
      "å": 6860,
      "õ": 6861,
      "å": 6862,
      "ǉŇ": 6863,
      "ǉŏ": 6864,
      "ȌZ": 6865,
      "Ț`": 6866,
      "ǣO": 6867,
      "ã": 6868,
      "¥ǣM¥": 6869,
      "¸": 6870,
      "ǉŨ": 6871,
      "ǣQ": 6872,
      "¡ǉŊ": 6873,
      "¡ǉņ": 6874,
      "ǊV¡": 6875,
      "ȷE": 6876,
      "%ɒÞǊ>": 6877,
      "ǉř": 6878,
      "ǧK¡": 6879,
      "ǧ=": 6880,
      "ȉS": 6881,
      "ǣK": 6882,
      "ǊJ¡": 6883,
      "ǝZ": 6884,
      "ȍ<": 6885,
      "ȟJ": 6886,
      "ȥR": 6887,
      "ǉŇǉō": 6888,
      "£ǉō": 6889,
      "ǚC": 6890,
      "ǡO": 6891,
      "¡ǣT": 6892,
      " ǉŔ": 6893,
      "ǥO": 6894,
      "ñ": 6895,
      "ì": 6896,
      "ø": 6897,
      " ǉő": 6898,
      " ú": 6899,
      "ǱJ": 6900,
      "Ǻ=": 6901,
      "ȆI": 6902,
      "¡ǢC": 6903,
      "ðǉō": 6904,
      "à": 6905,
      "Ǩ>¡": 6906,
      "¡ǣJ": 6907,
      "ǫO": 6908,
      "ȏO": 6909,
      "ȣF": 6910,
      "%ɒÞǪ3": 6911,
      "ǉŢ": 6912,
      "¡ǣH": 6913,
      "Ȁ`": 6914,
      "ǢT¥": 6915,
      "ǊżǊK": 6916,
      " ": 6917,
      "¥ǉŉ¥": 6918,
      "ǉŖ": 6919,
      "¡ú": 6920,
      "æǉŉǉō": 6921,
      "ǉ": 6922,
      "¥ǉŔ": 6923,
      "¡ǉŏ": 6924,
      "¥ǉř": 6925,
      "ä": 6926,
      "ǊQ¡": 6927,
      "¡ǉŖ¡": 6928,
      "ǉŸǉŸ": 6929,
      "Ǌ": 6930,
      "ǠP": 6931,
      "Ɖî": 6932,
      "ã": 6933,
      "¢ǉő": 6934,
      "ǨO": 6935,
      "ǉŨ": 6936,
      "ǣL": 6937,
      "ǽN": 6938,
      "ǾC": 6939,
      "ȅY": 6940,
      "ò": 6941,
      "ǉŘ": 6942,
      "ǉŘ": 6943,
      "ôǉŏ": 6944,
      "Ȅ8": 6945,
      "ǣV": 6946,
      "ñ": 6947,
      "ü": 6948,
      "ǊM": 6949,
      "Ǩa": 6950,
      "¡ö": 6951,
      "¥ǉŉ": 6952,
      "¤ǉō": 6953,
      "¡ǣN": 6954,
      "ȸO": 6955,
      "Ɖú": 6956,
      "ǥT": 6957,
      "ó": 6958,
      "Ǌp": 6959,
      "ǉŇǉŨ": 6960,
      "ǣR": 6961,
      "¥ǨJ": 6962,
      "ǫ2": 6963,
      "ǉŶ": 6964,
      "Ì": 6965,
      "ǣH": 6966,
      "ǰe": 6967,
      "ï": 6968,
      "¢ǉņ": 6969,
      "ǉŉǉŊ": 6970,
      " ǢX ": 6971,
      "¡ǣS": 6972,
      "¯": 6973,
      "ǟ]": 6974,
      "ǯ;": 6975,
      "ȃU": 6976,
      "¢æ": 6977,
      "î": 6978,
      "ǢL¡": 6979,
      "ǨC¥": 6980,
      "ǣM": 6981,
      "ȕa": 6982,
      "ǉŇ ǉō": 6983,
      "ñ": 6984,
      "¡æ": 6985,
      "ǉŵ": 6986,
      "ǼD": 6987,
      "ǣJ": 6988,
      "ǋT¢": 6989,
      "ȶM": 6990,
      "÷": 6991,
      " ò": 6992,
      "¡ǉŉ": 6993,
      "ǢżǢH": 6994,
      "ǉŨ": 6995,
      "ǉţ": 6996,
      "ǧe": 6997,
      "ǣQǣQ": 6998,
      "¡ǣO": 6999,
      "ǟ\\": 7000,
      "ȕd": 7001,
      "Ǩ>¡ǨE¡ǨJ¡": 7002,
      "ª": 7003,
      "¶": 7004,
      "ǣJ": 7005,
      "ǔ[": 7006,
      "ǞS": 7007,
      "ǣX": 7008,
      "é": 7009,
      "ǫ5": 7010,
      "Ǜl": 7011,
      "õ": 7012,
      " ú": 7013,
      "¥ǉř": 7014,
      "ǢQ¡": 7015,
      "¡ǣE": 7016,
      "¡ǣH": 7017,
      "Ì": 7018,
      "ȮQ": 7019,
      "¡ǧG": 7020,
      "ǨM¡": 7021,
      "ǉŉǉōǉř": 7022,
      "ǥO": 7023,
      "Ì": 7024,
      "¥ǉō": 7025,
      "ǨE¡": 7026,
      "ǤA¡": 7027,
      "¯": 7028,
      "²": 7029,
      "ôǉũ": 7030,
      "ǯC": 7031,
      "¡ǧD¡": 7032,
      "à": 7033,
      "ǉř": 7034,
      "ǉœ": 7035,
      "ǴE": 7036,
      "ȃW": 7037,
      "Ȥ\\": 7038,
      "ǥL": 7039,
      "²": 7040,
      "ǬF": 7041,
      "Ȟ]": 7042,
      "ǦH¡": 7043,
      "Ǩ> ǨE ǨJ": 7044,
      "ǉřÅ": 7045,
      "ǉŖ": 7046,
      "ǊY¡": 7047,
      "ǉŨ": 7048,
      "ǣM": 7049,
      "Ȅ7": 7050,
      "Þǫ5": 7051,
      "÷ǉŋ": 7052,
      "ñ": 7053,
      "ǉŹ": 7054,
      " ò": 7055,
      "âǉō": 7056,
      "ǉŢ": 7057,
      "ǰ5": 7058,
      "Ǩd": 7059,
      "ȇA": 7060,
      "ȾM": 7061,
      "%ɒÞǱ5": 7062,
      "é": 7063,
      "ǧ>¡ǧE¡ǧJ": 7064,
      "Ì": 7065,
      "¡ǉŎ": 7066,
      "ç": 7067,
      "ß": 7068,
      "£ǉō": 7069,
      "ǣE": 7070,
      "ǥſ": 7071,
      "ǣL": 7072,
      "ç": 7073,
      "ù": 7074,
      "ȏ7": 7075,
      "é": 7076,
      " ö": 7077,
      "ǉŇ": 7078,
      "¡ǣT": 7079,
      "ȭ_": 7080,
      "ȮZ": 7081,
      "ǉœ": 7082,
      "ê": 7083,
      "ǤF¡": 7084,
      "ǉŧ": 7085,
      "ǉņ ǉō": 7086,
      "¡ǣM": 7087,
      "ï": 7088,
      "ó": 7089,
      "ǣN": 7090,
      "ǙH": 7091,
      "¥æ": 7092,
      "â": 7093,
      "ǣO": 7094,
      "ý": 7095,
      "ǎ9": 7096,
      "ǔX": 7097,
      "ǰ*": 7098,
      "ø": 7099,
      " ǉņ": 7100,
      " ǉř": 7101,
      "¡ǧ>": 7102,
      "ǤH¡ǤM¡ǤQ": 7103,
      "~©": 7104,
      "ǜm": 7105,
      "ȂD": 7106,
      "¡ǉŘ": 7107,
      "¢ǢQ¢": 7108,
      "¥ǉŇ": 7109,
      "ǉŵ¡": 7110,
      "¾": 7111,
      "å": 7112,
      "ú": 7113,
      "ǢŻǢJ": 7114,
      "Ǒ:": 7115,
      "ǛŻ": 7116,
      "ǉŁ": 7117,
      "ñ": 7118,
      "ø": 7119,
      " ǉř": 7120,
      "ǣżǣI": 7121,
      "ǉŇǉŇ": 7122,
      "ǉň": 7123,
      "ǌ5": 7124,
      " ǥK": 7125,
      "¸": 7126,
      "ǸN": 7127,
      "ǣT": 7128,
      "ǣH": 7129,
      "¤ǉō": 7130,
      "Ǻ5": 7131,
      "¢ǣL": 7132,
      "¥ǢT¥": 7133,
      "ǐ\\": 7134,
      "ȧT": 7135,
      "ȩQ": 7136,
      "á": 7137,
      "í": 7138,
      "ǉōƋ": 7139,
      "·": 7140,
      "¡ǣH": 7141,
      "ëǉŋ": 7142,
      "ǭP": 7143,
      "ǶO": 7144,
      "ȍA": 7145,
      "¡ǉň": 7146,
      "ǣM": 7147,
      "ǉō": 7148,
      "ǨL": 7149,
      "¶": 7150,
      "ǣH": 7151,
      "ǉş": 7152,
      "ȥS": 7153,
      "%ɒÞǪ6": 7154,
      "á": 7155,
      "ǣQ": 7156,
      "ǥT": 7157,
      "ǦJ¡ǦN": 7158,
      "ǧg": 7159,
      "ȕI": 7160,
      "ǉŖ­ǉŗ": 7161,
      "ǉōǉŏ": 7162,
      "¢ǉō": 7163,
      "¦": 7164,
      "ǉŭ": 7165,
      "ȃ]": 7166,
      "ç": 7167,
      "ǣJ": 7168,
      "ǊM¡": 7169,
      "ǣO": 7170,
      "ǉņǉō": 7171,
      "¡ì": 7172,
      "ǊT": 7173,
      "¥ǉŇ": 7174,
      "%ɒÞǣJ": 7175,
      "§": 7176,
      "ǉŊ": 7177,
      "¶": 7178,
      "ó": 7179,
      "ǉŨ": 7180,
      "öǉŉǉō": 7181,
      "ǑZ": 7182,
      "Ǵ9": 7183,
      "ǶU": 7184,
      "ȨX": 7185,
      "ɂH": 7186,
      "ǣF": 7187,
      "à": 7188,
      "ǣL¥": 7189,
      "ǉŘ": 7190,
      "ȞS": 7191,
      "Ȣe": 7192,
      "ǥQ": 7193,
      "ǉŬ": 7194,
      "Ý": 7195,
      "ȇD": 7196,
      " ǉň": 7197,
      "ð": 7198,
      " ê": 7199,
      "£ǉō": 7200,
      "ǨL ": 7201,
      "ǣN": 7202,
      "ǉš": 7203,
      "¡ì": 7204,
      "¡Ǟ": 7205,
      "ǥQ": 7206,
      "ò": 7207,
      "ǨG¡": 7208,
      "¡ǣT": 7209,
      "ǣQ": 7210,
      "Ǒƀ": 7211,
      "¡ǣR¡": 7212,
      "Ǜ?": 7213,
      "ǾŻ": 7214,
      "ȐO": 7215,
      "¡ǦC": 7216,
      "¡ǥI": 7217,
      "ǉŉǉŊ": 7218,
      "ǊQ": 7219,
      "å": 7220,
      "ǉŢ": 7221,
      "ǣV": 7222,
      "Ɖû": 7223,
      "ǐŻ": 7224,
      "ǣd": 7225,
      "ȔY": 7226,
      "û": 7227,
      "¡ǉň": 7228,
      "ü": 7229,
      "ǊM": 7230,
      "ǧD": 7231,
      "ǉŖǉř": 7232,
      "í": 7233,
      "ǣR": 7234,
      "û": 7235,
      "£ǉņ": 7236,
      "öǉŋǉō": 7237,
      "ǋŽ": 7238,
      "ǌi": 7239,
      "ǡM": 7240,
      "ȑ_": 7241,
      "ë": 7242,
      "¥ǉņ": 7243,
      "àǉō": 7244,
      "¥ǣJ": 7245,
      "¡ǉŇǉō": 7246,
      "ǉņǉő": 7247,
      "ǡ[": 7248,
      "á": 7249,
      "é": 7250,
      "ñ": 7251,
      "¥ǫ1": 7252,
      "¡ǉř": 7253,
      "ǨO": 7254,
      "¿": 7255,
      "ǑI": 7256,
      "ǣƀ": 7257,
      "ȶU": 7258,
      "ð": 7259,
      "ǊQ¡": 7260,
      "£ö": 7261,
      "ǦH": 7262,
      "ǉŐ": 7263,
      "ǋ-": 7264,
      "ǧB": 7265,
      " æ": 7266,
      "¢ò": 7267,
      "É": 7268,
      "¡ǉŇǉō": 7269,
      " ǨE": 7270,
      " ö": 7271,
      "ǣN": 7272,
      " ǉŋ": 7273,
      " ǣO": 7274,
      "ǊR¡": 7275,
      "ǊŻǊJ": 7276,
      "K": 7277,
      "ǉũ": 7278,
      "ǑŻ": 7279,
      "ǖ`": 7280,
      "ȲM": 7281,
      "õ": 7282,
      "í": 7283,
      " ú": 7284,
      " æ": 7285,
      "ǉŮ": 7286,
      "ǶZ": 7287,
      "ǽ[": 7288,
      "¡ǥJ": 7289,
      "õ": 7290,
      "Ǌ`¡": 7291,
      "Ǧ9": 7292,
      "ǊV": 7293,
      "Ǩ@¡ǨG¡": 7294,
      "¹": 7295,
      "ȤŻ": 7296,
      "ǉů": 7297,
      "ǉś": 7298,
      "ǭX": 7299,
      "ǫ4 ": 7300,
      "¹": 7301,
      "ǉŔ": 7302,
      "ǉŐ": 7303,
      "èǉŉ": 7304,
      "ȇE": 7305,
      "ǉŨ": 7306,
      "ǉŵ": 7307,
      "ȼX": 7308,
      "ç": 7309,
      "ù": 7310,
      "ǊM": 7311,
      "ǦA¡": 7312,
      "ǉŤ": 7313,
      "¡ǧIǧU": 7314,
      "ǉŎ": 7315,
      "Ȃa": 7316,
      "Ȣb": 7317,
      "é": 7318,
      "ô": 7319,
      "£ǉō": 7320,
      "£ǉō": 7321,
      "ǉŠ": 7322,
      "ǉţ": 7323,
      "ȚH": 7324,
      "ǉũ": 7325,
      "¥": 7326,
      "ǉŨ": 7327,
      "ȎL": 7328,
      "õ": 7329,
      "ü": 7330,
      "ǰX": 7331,
      "ȳY": 7332,
      "%ɒÞǊ9": 7333,
      "ǉōǉř": 7334,
      "ǥS¡": 7335,
      "ǉŇǉŉ": 7336,
      "Ǣ@¥": 7337,
      "ȡI": 7338,
      "ǉŉǉō": 7339,
      "ǊO": 7340,
      "ã": 7341,
      " ǉř": 7342,
      "öǉŉǉō": 7343,
      "Ǣa": 7344,
      "%ɒÞǊM": 7345,
      " ì": 7346,
      "ß": 7347,
      "ǧE": 7348,
      "¥ǉō": 7349,
      "ǣJ": 7350,
      "ß": 7351,
      "ǧŻ": 7352,
      "ǣQ¥": 7353,
      "ǊQ": 7354,
      "æ": 7355,
      "âǉō": 7356,
      "Ǩ> ǨE ǨJ ǧ>": 7357,
      "®": 7358,
      "Ǩ2": 7359,
      " Ǭ0": 7360,
      "ñ": 7361,
      "ǉŚ": 7362,
      " ǉō ǉř": 7363,
      "¿": 7364,
      "¡ǧM": 7365,
      "~¢": 7366,
      "Ǡ`": 7367,
      "ȉ]": 7368,
      "ȒZ": 7369,
      "í": 7370,
      "¡ǉŖ": 7371,
      " ǊM": 7372,
      "ǻŻ": 7373,
      "Ȉa": 7374,
      "ǉŇǉō": 7375,
      "ǉŉǉō": 7376,
      "ǉŴ": 7377,
      " ú": 7378,
      "ǉŔ": 7379,
      "ǊO": 7380,
      " æ": 7381,
      "ǢH¡": 7382,
      " ǧF": 7383,
      "ê": 7384,
      "ǙHǙ": 7385,
      "ǸC": 7386,
      "Ȍ?": 7387,
      "ǉŏ": 7388,
      " â": 7389,
      "ǊF¡": 7390,
      "ǣ] ": 7391,
      "ǣR": 7392,
      "Ǽ:": 7393,
      "%ɒÞǊT": 7394,
      "ǊT": 7395,
      "ǧQ¥": 7396,
      "ǉś": 7397,
      "·": 7398,
      "ǉŐ": 7399,
      "®": 7400,
      "ǶW": 7401,
      "ǉŒ": 7402,
      "¡ǧR": 7403,
      "ǧI": 7404,
      "¡û": 7405,
      "ǊR": 7406,
      "ǉŋ": 7407,
      "ǉŢ": 7408,
      "ǣL": 7409,
      "¡ǣH": 7410,
      "í": 7411,
      "ǉōǉř": 7412,
      "¡ǉō¡": 7413,
      "ǣJ": 7414,
      "¡ǉř": 7415,
      "¼": 7416,
      "µ": 7417,
      "¾": 7418,
      "ǉũ": 7419,
      "ǥ7": 7420,
      "ǻf": 7421,
      "ǉŉ": 7422,
      "¡ǣH": 7423,
      "ȊM": 7424,
      " ǣT": 7425,
      "¥ǉō¥": 7426,
      "ǥQ": 7427,
      "ǉŌ": 7428,
      "ǣE": 7429,
      "ǉŬ": 7430,
      "ȥN": 7431,
      "¥ǢH": 7432,
      "´": 7433,
      "ǣM": 7434,
      "ǚh": 7435,
      "ǩL": 7436,
      "ï": 7437,
      "ó": 7438,
      "¥ǢQ": 7439,
      "ǦC¥": 7440,
      "¡ǣM": 7441,
      "ǣH": 7442,
      "¡ǫ/": 7443,
      "÷": 7444,
      "Ɖ": 7445,
      "¡î": 7446,
      "âǉōæ": 7447,
      "ǣR": 7448,
      "ȑa": 7449,
      "¡â": 7450,
      "¡ǉŋ": 7451,
      "ǊM": 7452,
      "ǣT": 7453,
      "ǬM": 7454,
      "ǿC": 7455,
      "Ț^": 7456,
      "ț?": 7457,
      "÷": 7458,
      " ǉŇ": 7459,
      "¡î": 7460,
      "ǫ0 ": 7461,
      "¡": 7462,
      "ȩR": 7463,
      "í": 7464,
      "õ": 7465,
      "ǣJ¥": 7466,
      "ǫ9 ": 7467,
      "Ã": 7468,
      "Ȕ[": 7469,
      "Ȯ`": 7470,
      " ǉŚ": 7471,
      "û": 7472,
      "¥ǢQ": 7473,
      "ǉō": 7474,
      "­Ǟ": 7475,
      "ǧ=ǧD": 7476,
      "ȇd": 7477,
      "ȮR": 7478,
      "¡ǨD": 7479,
      "ǥQ": 7480,
      "ì": 7481,
      "ǨJ¥": 7482,
      "ǧN ": 7483,
      "ǉř": 7484,
      "ȘM": 7485,
      "¡ǢJ": 7486,
      "ǥO": 7487,
      "Ɖ": 7488,
      "·": 7489,
      "âǉŇ": 7490,
      "Ǒ`": 7491,
      "ȥ[": 7492,
      "ç": 7493,
      "í": 7494,
      "ǉŋǉō": 7495,
      "ǎc": 7496,
      "ǡX": 7497,
      "ß": 7498,
      "ä": 7499,
      "ǊH": 7500,
      "ǨT¡": 7501,
      "¯": 7502,
      "ǓX": 7503,
      "ǣżǣO": 7504,
      "Á": 7505,
      "ǉŊ": 7506,
      "%ɒÞǫ>": 7507,
      "÷": 7508,
      "í": 7509,
      "¥ǉŘ": 7510,
      "ǉŋ ": 7511,
      " ú": 7512,
      "â": 7513,
      "ǫ/¡": 7514,
      "ǉŌ": 7515,
      "ǡU": 7516,
      "ǣS": 7517,
      "ǉŐ": 7518,
      "Ƿa": 7519,
      "ȃD": 7520,
      "Ȏ^": 7521,
      "¡ǣ@": 7522,
      "ä": 7523,
      "ǉŉǉō": 7524,
      "¡ǨF¡": 7525,
      "ǉő": 7526,
      "ǧ@": 7527,
      "©ǉō": 7528,
      "ǢS¡": 7529,
      "ï": 7530,
      "ù": 7531,
      "ǉŢ": 7532,
      "¡ê": 7533,
      "ǥG¡": 7534,
      "ǉŨ": 7535,
      "ǉŌ": 7536,
      "ǳL": 7537,
      "ǶR": 7538,
      "ï": 7539,
      "ǊM¡": 7540,
      "£ǉŇ": 7541,
      "Ǫ5 ": 7542,
      "ǣL": 7543,
      "¡ǣM": 7544,
      "ǫ&": 7545,
      "ǳ]": 7546,
      "ǵ7": 7547,
      "ǸL": 7548,
      "ǽP": 7549,
      "ȶO": 7550,
      "ǣM": 7551,
      "ǥQ": 7552,
      "ǧK¡": 7553,
      "ǉŎ": 7554,
      "ǉŒ": 7555,
      "è": 7556,
      "£ú": 7557,
      "ǨE¡": 7558,
      "ǨL¥": 7559,
      "ǉŇǉōǉř": 7560,
      "Í": 7561,
      "À": 7562,
      "ȓH": 7563,
      "ȡ.": 7564,
      "ß": 7565,
      "õ": 7566,
      "Ǧ>¡": 7567,
      "ç": 7568,
      "ǫ2": 7569,
      "ǫ3¡": 7570,
      "¡ǨH¡ǨM": 7571,
      "ǉŉ": 7572,
      "ǝb": 7573,
      "Ǯ8": 7574,
      "ǣJ": 7575,
      " ǉő": 7576,
      "ǫ7¡": 7577,
      " ǉő ": 7578,
      "Å": 7579,
      "ȃ>": 7580,
      "ȊC": 7581,
      "ȭZ": 7582,
      " ä": 7583,
      "ë": 7584,
      "ǊQ ": 7585,
      "ä": 7586,
      "£ê": 7587,
      " ǉŇ": 7588,
      "ǨE": 7589,
      "ǉň": 7590,
      "Ǜ>": 7591,
      "ǽX": 7592,
      "ȋA": 7593,
      "ǥM": 7594,
      "å": 7595,
      "è": 7596,
      "¥ǉŉ": 7597,
      "ǉř": 7598,
      "Ǽ^": 7599,
      "²": 7600,
      "ǽK": 7601,
      "ȍV": 7602,
      "ǉňǉŉ": 7603,
      "ǫ6 ": 7604,
      "ǫ1¡": 7605,
      "ǣI": 7606,
      "ǉŊǉŏ": 7607,
      "ǉŴ": 7608,
      "ǒ?": 7609,
      "ǉŌ": 7610,
      "ǫ7¡": 7611,
      "ǊL¡": 7612,
      "ǦR": 7613,
      "ǣN": 7614,
      "æǉŖ": 7615,
      "ǱN": 7616,
      "ȁT": 7617,
      "Ɖö": 7618,
      "ǣL": 7619,
      "ǉŞ": 7620,
      "Ȓ_": 7621,
      "ȚJ": 7622,
      "¡ǥX": 7623,
      "ǣM": 7624,
      "ǊO": 7625,
      "¡ǨA": 7626,
      "ô": 7627,
      "ǉŅ": 7628,
      "¡ǣN": 7629,
      "èǉō": 7630,
      "ã": 7631,
      "òǉō": 7632,
      "ø": 7633,
      "ǣL¥": 7634,
      "ǉōǉřǉŨ": 7635,
      "ǉŬ": 7636,
      "ǣL": 7637,
      "ǣH": 7638,
      "º": 7639,
      "èǉŏ": 7640,
      "ǖE": 7641,
      "Ǳ*": 7642,
      "ǻ>": 7643,
      "ȍH": 7644,
      "ȒT": 7645,
      "ǉņǉō": 7646,
      "¡ü": 7647,
      "ǉŎ": 7648,
      "ǦM": 7649,
      "ǥŻǥM": 7650,
      " ǉņ ǉő ": 7651,
      "Ǩ4": 7652,
      "ș`": 7653,
      "Ɖ": 7654,
      "ǉŘ": 7655,
      "ý": 7656,
      "ǭ7 ": 7657,
      "ǋQ ": 7658,
      "ȟM": 7659,
      "¡ǢJ": 7660,
      " ò": 7661,
      "ǥT": 7662,
      "¿": 7663,
      "ǴM": 7664,
      "ȕL": 7665,
      "ñ": 7666,
      "ǉŠ": 7667,
      "¢ǉř": 7668,
      "¥ǉŖ": 7669,
      "ǨH¥": 7670,
      "ǦA¡": 7671,
      "¡ǨI¡": 7672,
      "Ì": 7673,
      "ǣQ": 7674,
      "Ǿa": 7675,
      "ȢN": 7676,
      "ǉŊǉō": 7677,
      "ǉŨ": 7678,
      "ȭL": 7679,
      "ø": 7680,
      "ǨF¡": 7681,
      "ǨB": 7682,
      "ǉŇ ǉŏ": 7683,
      "ǉŢ": 7684,
      "ǣM": 7685,
      "ǳM": 7686,
      "ǥT": 7687,
      "ǥO": 7688,
      "¤ǉō": 7689,
      "Ǩ<¡ǨC¡": 7690,
      "ǉň": 7691,
      "Ǡ_": 7692,
      "Ȋ]": 7693,
      "¡ǥE": 7694,
      "ǊO": 7695,
      "ǥT": 7696,
      "ǥM": 7697,
      "ø": 7698,
      "£": 7699,
      "¡ǣT": 7700,
      "õ": 7701,
      "ô": 7702,
      "ǊX¡": 7703,
      "¢ǉō": 7704,
      "ǋżǋJ": 7705,
      "£ǉō": 7706,
      "ǉŘ": 7707,
      "ǉŇǉŉǉō": 7708,
      "¡ǣC": 7709,
      "ǣH": 7710,
      "ǫ0¡": 7711,
      "ǣR": 7712,
      "Å": 7713,
      "%ɒÞǪ8": 7714,
      "¡ǉŨ": 7715,
      "í": 7716,
      "ǋżǋT": 7717,
      "Ǣ[": 7718,
      " ǉő": 7719,
      "ǊQ¡": 7720,
      "ǊT": 7721,
      " ǉņ": 7722,
      "ǉņǉŏ": 7723,
      "ǣH": 7724,
      "ǣL": 7725,
      "ǦO": 7726,
      "¥ú": 7727,
      "ǊT¡": 7728,
      "ǧE¡": 7729,
      "ǐD": 7730,
      "ȣ[": 7731,
      "¡ǫ4": 7732,
      "%ɒÞƮ": 7733,
      "¡ǨA": 7734,
      "ǉŖ": 7735,
      "Ȟ[": 7736,
      "á": 7737,
      " ǉő ǉũ": 7738,
      "ǉŠ": 7739,
      "ȑb": 7740,
      "Ȣ_": 7741,
      "ä": 7742,
      "ö": 7743,
      "ǉţǉŤǉũ": 7744,
      "ǉő": 7745,
      "Ȍ^": 7746,
      " ǣM": 7747,
      "¡ǥL": 7748,
      "Ǩ>¡": 7749,
      "ǻ<": 7750,
      "ǨH": 7751,
      " ú": 7752,
      "ǧI ": 7753,
      "ǣS": 7754,
      "ǉŜ": 7755,
      "Ç": 7756,
      "ǔb": 7757,
      "ǴQ": 7758,
      "ǉŉǉō": 7759,
      " Ɖæ": 7760,
      "ǣL": 7761,
      "¥ǊO¥": 7762,
      "ǣA": 7763,
      "ǧG": 7764,
      "Ǐ9": 7765,
      "ȥU": 7766,
      "%ɒÞǉŨ": 7767,
      "òǉō": 7768,
      "é": 7769,
      "ô": 7770,
      "æ": 7771,
      "Ì": 7772,
      "ǵ<": 7773,
      "ð": 7774,
      "ǉō¡ǉŵ": 7775,
      "êǫ0": 7776,
      "ǼA": 7777,
      "%ɒÞǣE": 7778,
      "Ɗ": 7779,
      "ñ": 7780,
      "ù": 7781,
      "ø": 7782,
      "¡ǉŋ": 7783,
      "ǤV ": 7784,
      "ȡż": 7785,
      "ǉŇǉŏ": 7786,
      "¡ǧL": 7787,
      "ǥO": 7788,
      "÷": 7789,
      "¡ǉŏ": 7790,
      "ǉŉǉŊ": 7791,
      "¡ǉō¡ê": 7792,
      "ǧ=ǧDǧI": 7793,
      "ǉņ": 7794,
      "ǉŠ": 7795,
      "ǒ[": 7796,
      "ȂK": 7797,
      "ǣO": 7798,
      "ǧC ": 7799,
      " ǉň": 7800,
      "ǋO ": 7801,
      "¡ǣR": 7802,
      "ǉō": 7803,
      "ǥżǥO": 7804,
      "ǉŇǉŊ": 7805,
      "Ǌs": 7806,
      "ǷL": 7807,
      "%ɒÞǊQ": 7808,
      "ç": 7809,
      "ǨA¡ǨH¡ǨM": 7810,
      "ǭ<¡": 7811,
      "Ǩ<¡": 7812,
      "ǣW": 7813,
      "¸": 7814,
      "ȞC": 7815,
      "ñ": 7816,
      "ǣO": 7817,
      "ǫ5¡": 7818,
      "ǊR": 7819,
      "ǢO¡": 7820,
      "¥ê": 7821,
      "ǦM": 7822,
      "ǧ;¡ǧB¡ǧG": 7823,
      "ǥŻǥH": 7824,
      "ǉŇǉō": 7825,
      "Ǫ)": 7826,
      "ȲQ": 7827,
      "¡ǭ:": 7828,
      "¡ô": 7829,
      "ù": 7830,
      "¥ǨE": 7831,
      "ǦZ": 7832,
      "ǲ\\": 7833,
      "Ȕ^": 7834,
      "ǉņǉŖ": 7835,
      "ǣH": 7836,
      " ê": 7837,
      "£ö": 7838,
      "Ì": 7839,
      "ǉŌ": 7840,
      "¡ǥE": 7841,
      "¡ǉř": 7842,
      "ǫ- ": 7843,
      "­ǉŇ": 7844,
      "¤ǉō": 7845,
      "ǦżǦJ": 7846,
      "ǨJ¡ǨO¡": 7847,
      "ȑN": 7848,
      "ȟ^": 7849,
      " ì": 7850,
      "ǉōǉř": 7851,
      "ɀJǉţ": 7852,
      "ǉŶ": 7853,
      "ǉš": 7854,
      "ǎd": 7855,
      "ǵC": 7856,
      "ǣS": 7857,
      " û": 7858,
      "ǉņ": 7859,
      "ǉůǉŵ": 7860,
      "ǉŶ": 7861,
      "ǉů": 7862,
      "¡ǣM": 7863,
      "ǠL": 7864,
      "ǽU": 7865,
      "Ȅ>": 7866,
      "ȑJ": 7867,
      "¢â": 7868,
      "©ǉņ": 7869,
      "ǣV¢": 7870,
      "ǉŞ": 7871,
      "ǉŊ": 7872,
      "Ǜ:": 7873,
      "ȉ`": 7874,
      "ȶ]": 7875,
      "ǣH": 7876,
      "ǥQ": 7877,
      "ǏƂ": 7878,
      "ǜG": 7879,
      "ý": 7880,
      "ù": 7881,
      "ǉō¡ǉŵ": 7882,
      "ǔY": 7883,
      "£î": 7884,
      "ǊQ": 7885,
      "ǣH": 7886,
      "÷": 7887,
      "¡ǉř": 7888,
      "ä": 7889,
      "ǢS¥": 7890,
      " ǉō": 7891,
      "¡ǉŋ¡ǉŕ": 7892,
      "ǉŌ": 7893,
      "ȥW": 7894,
      "¡Ș": 7895,
      "ç": 7896,
      "ǣM": 7897,
      "ǣN": 7898,
      " â": 7899,
      "ǊV¡": 7900,
      "£ú": 7901,
      "£ǉō": 7902,
      "º": 7903,
      "ǦJ": 7904,
      "ǢQ": 7905,
      "û": 7906,
      "¡ê": 7907,
      "¥ú": 7908,
      "ǫ.¡": 7909,
      "¡ǉō¡": 7910,
      "Ǭ4 ": 7911,
      "«": 7912,
      "ǉŘ": 7913,
      "Ǔ_": 7914,
      "ǖ\\": 7915,
      "ǛI": 7916,
      "ǉŏǉő": 7917,
      "¡ǣE": 7918,
      "¿": 7919,
      "¾": 7920,
      "Ǧ.": 7921,
      "Ǩ,": 7922,
      "ȋ_": 7923,
      "ȭb": 7924,
      "Ⱦ8": 7925,
      "%ɒÞƱ": 7926,
      " î": 7927,
      "ǧJ ": 7928,
      "¡ǉŇǉő": 7929,
      "ǉų": 7930,
      "¡ǥO": 7931,
      "©": 7932,
      "¿": 7933,
      "¡ǣL": 7934,
      "´": 7935,
      "ȡG": 7936,
      "ǣL": 7937,
      "å": 7938,
      "ɉV": 7939,
      "ǉőǉŖ": 7940,
      "ɉG": 7941,
      "¡ǣN": 7942,
      "¡ǣN": 7943,
      "ǌ?": 7944,
      "ȍ7": 7945,
      "å": 7946,
      "ǉŖ": 7947,
      "¥î": 7948,
      "î": 7949,
      "ǉś": 7950,
      "ǧC": 7951,
      "ǉō": 7952,
      "ǩH": 7953,
      "%ɒÞƲ": 7954,
      "Ɖê": 7955,
      "¡ú": 7956,
      "ǉŇǉŉ": 7957,
      "Ǜj": 7958,
      "ǫL": 7959,
      "ǣO": 7960,
      "ǦJ": 7961,
      "¡ê": 7962,
      "ǨI¡": 7963,
      "ǉŐ": 7964,
      "Ȇ]": 7965,
      "ȏQ": 7966,
      " è": 7967,
      "ǥT": 7968,
      "ǣL": 7969,
      "õ": 7970,
      " Ǩ@": 7971,
      "ǨL¡": 7972,
      "ȃ5": 7973,
      "ǉŧ": 7974,
      "¡ǣH": 7975,
      "¡ǣQ": 7976,
      "ǚF": 7977,
      "ǭ[": 7978,
      "ǉņǉŔ": 7979,
      "è": 7980,
      " ǧE ": 7981,
      "ǋM ": 7982,
      "ǣ": 7983,
      "¡ǣN": 7984,
      "ǉŐ": 7985,
      "÷": 7986,
      "ǧC": 7987,
      "¡ǣI": 7988,
      "%ɒÞǱ0": 7989,
      "ǨC": 7990,
      "ǨQ¥": 7991,
      " ǢQ ǢV": 7992,
      "ǉŐ": 7993,
      "ǉų": 7994,
      "ǎe": 7995,
      "ǑB": 7996,
      "ȉF": 7997,
      "ȤA": 7998,
      "Ȩ^": 7999,
      "ǣL": 8000,
      " ǉř": 8001,
      "¢Ǣ]": 8002,
      "ǉũ¡": 8003,
      "¤ǉŇ": 8004,
      "©ǉō": 8005,
      "ǉŋǉō": 8006,
      "ǉŵ": 8007,
      "ǸS": 8008,
      "ǣT": 8009,
      " ò": 8010,
      "¤Ƚ": 8011,
      "ǉōè": 8012,
      "ǉŵ": 8013,
      "ǉőǉř": 8014,
      "¡ǤO¡": 8015,
      "Ǥa": 8016,
      "ȞN": 8017,
      "ù": 8018,
      "ý": 8019,
      "ù": 8020,
      " ò": 8021,
      "ǊO¡": 8022,
      "ǫ7 ": 8023,
      "ǣT": 8024,
      "ǉņǉŋ": 8025,
      "ǉŎ": 8026,
      "ǒO": 8027,
      "ǲJ": 8028,
      "%ɒæ": 8029,
      "ç": 8030,
      "¥æ": 8031,
      "ǉũ": 8032,
      "¡ǣR": 8033,
      "ǣQ¢": 8034,
      " î": 8035,
      "ǊO¡": 8036,
      "ǊY": 8037,
      "¢ǉō": 8038,
      "ǉŜ": 8039,
      "Ǩ3": 8040,
      "ȞI": 8041,
      "¡ǉő": 8042,
      "ǢJ¥": 8043,
      "ǢM¡": 8044,
      "ǢC¡": 8045,
      "ǰA¢": 8046,
      "ǋS¥ǋV¥": 8047,
      "ǣL": 8048,
      "ǲP": 8049,
      "ç": 8050,
      "ǥM": 8051,
      "÷": 8052,
      "ǧQ": 8053,
      "ð": 8054,
      " æ": 8055,
      "¢ǉņ": 8056,
      "ǤQ": 8057,
      "£ǉō": 8058,
      "¢": 8059,
      "ǉŒ": 8060,
      "Á": 8061,
      "ǻD": 8062,
      "Ȣ\\": 8063,
      "ǊO¥": 8064,
      "¢ö": 8065,
      "ǣK": 8066,
      "¡ǣT": 8067,
      "ǉũ": 8068,
      "ǉź": 8069,
      "ǫ[": 8070,
      "ǱO": 8071,
      "ǶJ": 8072,
      "¡ǣG": 8073,
      "ð": 8074,
      "ǭ7¡": 8075,
      "ǢC¥": 8076,
      "Ǔc": 8077,
      "ȳZ": 8078,
      "ɀ]": 8079,
      "¡ǉš": 8080,
      "%ɒÞǱ4": 8081,
      " ð": 8082,
      "ǊV¡": 8083,
      "ǦL": 8084,
      " ǉō": 8085,
      "Ǧ@": 8086,
      "Ǌ< ": 8087,
      "ǊO": 8088,
      "Ȏb": 8089,
      "ǦJ": 8090,
      "ǦC": 8091,
      "ǫ0¡": 8092,
      "ǢQ¡": 8093,
      "ä": 8094,
      "ǉŉ": 8095,
      "ǉŇ": 8096,
      "Ä": 8097,
      "Á": 8098,
      "ȼW": 8099,
      "Ƌ": 8100,
      "ǣN": 8101,
      "âǉō": 8102,
      "¤": 8103,
      "ǉŹ": 8104,
      "Ȥ`": 8105,
      "¥ǣJ¥": 8106,
      "¡ǦJ¡ǦN": 8107,
      "¡ǉŨ": 8108,
      "ǉş": 8109,
      "è": 8110,
      "ǥQ": 8111,
      "¡ú": 8112,
      "ǉŘ": 8113,
      "ȤZ": 8114,
      "¡ǉŒ": 8115,
      "ǣO": 8116,
      "¡ǧG": 8117,
      "ǉŐ": 8118,
      "ǠJ": 8119,
      "ǱD": 8120,
      "¡ǥV": 8121,
      "ǊR": 8122,
      "ǣN": 8123,
      "ð": 8124,
      "ǣT": 8125,
      "ǉŇǉő": 8126,
      "ǣR": 8127,
      "ǉŖǉř": 8128,
      "¡ǦJ¡ǦN¡": 8129,
      "øǉŏ": 8130,
      "ǳX": 8131,
      "¡ǉš": 8132,
      "é": 8133,
      "ǢJ": 8134,
      "ǊL¡": 8135,
      "¥ǉņ": 8136,
      "ǣƃ": 8137,
      "ǶS": 8138,
      "ȓi": 8139,
      "¡ǧE¡": 8140,
      "ǋM": 8141,
      "ǣQ": 8142,
      "ó": 8143,
      "ǣO¥": 8144,
      "ǢJ¥": 8145,
      "ǉōê": 8146,
      "¡ǣV": 8147,
      "ǢE¡ǢJ¡": 8148,
      "Ã": 8149,
      "Ǐ;": 8150,
      "ȐH": 8151,
      "ȑL": 8152,
      "ȩV": 8153,
      "ǥW": 8154,
      "á": 8155,
      "ǊT¡": 8156,
      "ǋT ": 8157,
      "ǤR¡": 8158,
      "ǐ@ǐ@": 8159,
      "%ɑ": 8160,
      "ǉš": 8161,
      "ǜA": 8162,
      "ǜE": 8163,
      "ȀŻ": 8164,
      "ȎU": 8165,
      "ȓf": 8166,
      "țŻ": 8167,
      "ȡa": 8168,
      "ð": 8169,
      "¡ǉō": 8170,
      "ǊQ": 8171,
      "ǉōǉřǉŨ": 8172,
      "ǉř": 8173,
      "ëǉŇ": 8174,
      "ý": 8175,
      " ǥT": 8176,
      "¥ǋQ¥": 8177,
      "ǢO ": 8178,
      "¢": 8179,
      "¡ǣR": 8180,
      "ǉŎ": 8181,
      "öǉŇ": 8182,
      "ǋn": 8183,
      "Ǩg": 8184,
      "ǽF": 8185,
      "ǯ": 8186,
      "¥î": 8187,
      "ǉōú": 8188,
      "ǉś": 8189,
      "ǣH": 8190,
      "%ɒÞǫ,": 8191,
      "ǣL": 8192,
      "ȻpȽp": 8193,
      "ǨE": 8194,
      "¤ǉŇ": 8195,
      "ǉň": 8196,
      "ǣ4": 8197,
      "Ȥ_": 8198,
      "ǥT": 8199,
      "ǣF": 8200,
      " î": 8201,
      "ǦJ¡": 8202,
      "ǨE ": 8203,
      "ǧX ": 8204,
      "¡ǦE¡ǦJ¡ǦN¡": 8205,
      "ǭI": 8206,
      "å": 8207,
      "ǊM¥": 8208,
      "ǣV¡": 8209,
      "ǉř": 8210,
      "ǉŤ": 8211,
      "Ã": 8212,
      "ǞL": 8213,
      "ǭ)": 8214,
      "Ȉ:": 8215,
      "á": 8216,
      " ǉŋ": 8217,
      "¡ǉŇ¡ǉŌ": 8218,
      "ǉŌ": 8219,
      "ǌl": 8220,
      "Ǒ5": 8221,
      "Ȩ`": 8222,
      "ǊL": 8223,
      "ǉś": 8224,
      "ǉņǉŖ": 8225,
      "Ǌƀ": 8226,
      "ǎB": 8227,
      "Ƿż": 8228,
      "Ȣc": 8229,
      "¡ǉŜ": 8230,
      "ǥJ¡": 8231,
      "ǨQ": 8232,
      "£ǉō": 8233,
      "Ǣ@¡": 8234,
      "ǣT": 8235,
      "ǉōö": 8236,
      "ǉņ¡ǉō¡": 8237,
      "¡ǣQ": 8238,
      "¡ǣM": 8239,
      "ǞP": 8240,
      "ȇ>": 8241,
      "¥ø": 8242,
      " ǥK ": 8243,
      "ǉŖ­ǉŗ­": 8244,
      "%ɑÞ": 8245,
      "ǣM": 8246,
      "É": 8247,
      "ǉŮ": 8248,
      "%ɒÞǦ>": 8249,
      "Ǌ]": 8250,
      " ð": 8251,
      "ǥO": 8252,
      "ǥVǥY": 8253,
      "ǊQ": 8254,
      "¡ǉŏ¡": 8255,
      "ǣL": 8256,
      "ǉů": 8257,
      "ǌ@": 8258,
      "ǩS": 8259,
      "Ǻp": 8260,
      "%ɒÞǱ7": 8261,
      "¡Ǧ>": 8262,
      " ä": 8263,
      " ô": 8264,
      "ǣH": 8265,
      "¡ǦO": 8266,
      "ǨO¡": 8267,
      "ǉš": 8268,
      "ȼU": 8269,
      "¡ǥH": 8270,
      " ǉũ": 8271,
      "¥ǉŋ": 8272,
      "ǢO¡": 8273,
      "ǧH ": 8274,
      "ǢC¥": 8275,
      "ǊQ": 8276,
      "ǉŘǉŞ": 8277,
      "ǝP": 8278,
      " ò": 8279,
      "ǧ>ǧE": 8280,
      "ǋżǋK": 8281,
      "Ǎ\\": 8282,
      "ǎ?": 8283,
      "ǰZ": 8284,
      "¡ǥS": 8285,
      "¡ǣE": 8286,
      "ǥX": 8287,
      "ǫ.": 8288,
      "ǊQ": 8289,
      "ǥM": 8290,
      "ǉřǉŭǉŶ": 8291,
      "ǐ7": 8292,
      "ǬR": 8293,
      "ȎN": 8294,
      "ï": 8295,
      "á": 8296,
      "ǊR": 8297,
      " ǉř": 8298,
      "ǉň": 8299,
      "ǉŎ": 8300,
      "Á": 8301,
      "ãǉŉ": 8302,
      "ǞQ": 8303,
      "ǯ?": 8304,
      "ȢK": 8305,
      "ǊT": 8306,
      "¡ǧL": 8307,
      "¥ö": 8308,
      "¥ò": 8309,
      "ǧ9¡ǧ@": 8310,
      "¡ǣP": 8311,
      "ǍD": 8312,
      "ǥR": 8313,
      "ǣQ": 8314,
      " ǉŐ": 8315,
      "ô": 8316,
      "ǉŨ": 8317,
      " ǉŋ": 8318,
      "£ǉņ": 8319,
      "~½": 8320,
      "ǴF": 8321,
      "Ǹ`": 8322,
      "ǣH": 8323,
      "ǊQ¡": 8324,
      "ǉœ": 8325,
      "ǉŶ": 8326,
      "Ǌſ": 8327,
      "Ȃc": 8328,
      "ȳB": 8329,
      " ǉŏ": 8330,
      "÷": 8331,
      "é": 8332,
      "¡ǉŖ": 8333,
      "ǉňǉō": 8334,
      "ǊJ": 8335,
      "ǉř": 8336,
      "ǉš": 8337,
      "ǮA": 8338,
      "Ȋ>": 8339,
      "ë": 8340,
      "ǣQ": 8341,
      "ǉř": 8342,
      "ǉŎ": 8343,
      "Ì": 8344,
      "ǉŖ": 8345,
      "ǣH": 8346,
      "ǨŻ": 8347,
      "%ɒÞǭ-": 8348,
      "ǨB¡": 8349,
      "ǉņǉŉ": 8350,
      "¡ǣN": 8351,
      "ǉŜ": 8352,
      "Ǐc": 8353,
      "ǒV": 8354,
      "ǵ>": 8355,
      "Ǹd": 8356,
      "ȅU": 8357,
      "ɂM": 8358,
      " ǣQ": 8359,
      "¥ò": 8360,
      " ê": 8361,
      "ǧC ": 8362,
      "ǤŻǤJ": 8363,
      "ǉũ": 8364,
      "ǉŜ": 8365,
      "ǥf": 8366,
      "ǱM": 8367,
      "ǸF": 8368,
      "ȊY": 8369,
      "ǊO": 8370,
      "ǦJ": 8371,
      "¡ê": 8372,
      "¾": 8373,
      "Ǽſ": 8374,
      "ȸ]": 8375,
      "òǉō": 8376,
      "­ǉņ": 8377,
      "ǧF¡": 8378,
      "ǢH¡ǢL": 8379,
      "Ǒ?": 8380,
      "ȕc": 8381,
      "¡ǦC": 8382,
      " ǣP": 8383,
      "ǉţ": 8384,
      " ǉŇ": 8385,
      " ǧE ǧJ ": 8386,
      "¡ǫ0": 8387,
      "ǊT": 8388,
      "ǥM": 8389,
      "é": 8390,
      "¥ǉŔ": 8391,
      "¢ǢX": 8392,
      " ǉŖ": 8393,
      "¢ǉŇ": 8394,
      "ǦE¡": 8395,
      "ǨQ ": 8396,
      "¥ǉō": 8397,
      "ǉņ ǉō ": 8398,
      "Ǩ> ǨE ǨJ ǧ> ǧE ǧJ ": 8399,
      "ȸY": 8400,
      "ǤO": 8401,
      "í": 8402,
      "ǊT¡": 8403,
      "ǢO¥": 8404,
      "ǣżǣC": 8405,
      "ǊO": 8406,
      "Ê": 8407,
      "ǥ.": 8408,
      "ȋb": 8409,
      "ǨO": 8410,
      "âǉō": 8411,
      "ç": 8412,
      "ǧB¡ǧI¡": 8413,
      " ǉō": 8414,
      "ǉŉǉō": 8415,
      "Ǥ3": 8416,
      "ǉŉǉō": 8417,
      "ǊM": 8418,
      "âǉō": 8419,
      "ǉŋǉō": 8420,
      "¡ò": 8421,
      "¡ò": 8422,
      "ǢO¥": 8423,
      "ǊK¡": 8424,
      "Ǌ;": 8425,
      "ǧ<¡ǧC": 8426,
      "ǧ;¡ǧB¡": 8427,
      "¡ǣV": 8428,
      "¡ǣG": 8429,
      "ǢH¡ǢL¡": 8430,
      "ǉœ": 8431,
      "ȩU": 8432,
      "¡ǧD": 8433,
      "¡ü": 8434,
      "¡ǢJ": 8435,
      "ǭ4¡": 8436,
      "¥": 8437,
      "țD": 8438,
      "Ɗ": 8439,
      " ǉŨ": 8440,
      "ǝV": 8441,
      "¸": 8442,
      "ǉœ": 8443,
      "Ƕ_": 8444,
      "ǡV": 8445,
      "÷": 8446,
      "¥ǉŌ": 8447,
      "ô": 8448,
      "¡ǣT": 8449,
      "ǐc": 8450,
      "ǥS": 8451,
      "Ǩ;": 8452,
      "ǉņǉŔ": 8453,
      "¡ǣC": 8454,
      "¡ǣ": 8455,
      "ǉŸ": 8456,
      "ǉŮ": 8457,
      "Ɖã": 8458,
      "ǟż": 8459,
      "òǉō": 8460,
      "ǉŖ": 8461,
      "¥ǉŇ": 8462,
      "ǦC": 8463,
      "ǧM ": 8464,
      "ǉņǉň": 8465,
      "ǫ(ǫ4": 8466,
      "Ȝc": 8467,
      "¡ǤH": 8468,
      "Ɖæ": 8469,
      " ǣO": 8470,
      "ë": 8471,
      " ǣJ": 8472,
      "ǊJ": 8473,
      "ǊO": 8474,
      "ǉŴ": 8475,
      "Ý": 8476,
      "Ȋ<": 8477,
      "ȍC": 8478,
      "ǉŇǉň": 8479,
      "êǉō": 8480,
      " ǉŏ": 8481,
      "ǊV": 8482,
      "¥ú": 8483,
      "¥î": 8484,
      "¡ǣJ¡ǣN": 8485,
      "ǣJ": 8486,
      "Ǧ1": 8487,
      "ǰ[": 8488,
      "ǳH": 8489,
      "ȗ[": 8490,
      "ǫ9": 8491,
      "à": 8492,
      " ǉŋ": 8493,
      " â": 8494,
      "¥ǉņ": 8495,
      "ǢO ": 8496,
      "¢ǉŉ": 8497,
      "ǎa": 8498,
      "ǣL": 8499,
      "üǉō": 8500,
      "ǥV": 8501,
      "¢ǉŞ": 8502,
      "ǊR¡": 8503,
      "Ǩ@¡ǨG¡": 8504,
      "¤ǉō": 8505,
      "Ǌ;¡": 8506,
      "ǉş": 8507,
      "Ȋ7": 8508,
      "ȘK": 8509,
      "ȮW": 8510,
      "Ɗ": 8511,
      "ǢM": 8512,
      " ǉō": 8513,
      "¡ǣT": 8514,
      "¡ǣS": 8515,
      "âǉŉ": 8516,
      "ȭN": 8517,
      "ȮM": 8518,
      "%ɒÞǪ.": 8519,
      "ǦJ": 8520,
      "ø": 8521,
      "ǉŋǉő": 8522,
      "ǉ": 8523,
      "·": 8524,
      "ǣJ": 8525,
      "ǉŜ": 8526,
      "ǟ^": 8527,
      "ȊE": 8528,
      "ǺO": 8529,
      "é": 8530,
      "ǉŶ": 8531,
      "ǫ4 ": 8532,
      "ǉŐ": 8533,
      "êǉņ": 8534,
      "ǌc": 8535,
      "ǊM": 8536,
      "ǥU": 8537,
      "¥ǫ.": 8538,
      "¢î": 8539,
      "ǫ7 ": 8540,
      "ǨJ¡": 8541,
      "ǉōǉř": 8542,
      "ǉŘ": 8543,
      "üǉņ": 8544,
      "Ȕb": 8545,
      "¡ǢL": 8546,
      " Ɖú": 8547,
      "ǧJ¥": 8548,
      "ǧE¡": 8549,
      "½ǉŇ": 8550,
      "ǉŐ": 8551,
      "ǉŬ": 8552,
      "%ɒÞǉŇǉō": 8553,
      "âǉō": 8554,
      "ǥJ": 8555,
      "í": 8556,
      "ǥQ": 8557,
      "ù": 8558,
      "¥ǉņ": 8559,
      " ǉő": 8560,
      "ȿG": 8561,
      "ǣi": 8562,
      "ȢQ": 8563,
      "ǋV": 8564,
      "Ɖî": 8565,
      " ǉŋ": 8566,
      "ǫ0¡": 8567,
      "æ": 8568,
      "ǉřǉŨ": 8569,
      "ǉŇǉō": 8570,
      "ǉř": 8571,
      "±": 8572,
      "ǪI": 8573,
      "ȏV": 8574,
      " Ɖö": 8575,
      "£ǉŇ": 8576,
      "ǣS": 8577,
      "ǝVǚV": 8578,
      "ǉŎ": 8579,
      "Ǯ?": 8580,
      " ú": 8581,
      "¢ǉņ": 8582,
      " î": 8583,
      "Ǩ=¡ǨD": 8584,
      "ǤF¡ǤK": 8585,
      "ȳA": 8586,
      "¡ǉŚ": 8587,
      "¡ǨV": 8588,
      "ǫ2": 8589,
      "ǣX": 8590,
      "ǥQ": 8591,
      "ǥR": 8592,
      " ǣQ": 8593,
      "ǦJ": 8594,
      "ö": 8595,
      "ǺH": 8596,
      "ǣS": 8597,
      "ǣJǣJ": 8598,
      "ǉņ": 8599,
      "¡ǣM": 8600,
      "ȽF": 8601,
      "ǥM": 8602,
      "ǥO": 8603,
      "¡æ": 8604,
      "Ǒ7": 8605,
      "ǶL": 8606,
      "Ȍ>": 8607,
      "âǉō": 8608,
      "õ": 8609,
      "ǊQ¥": 8610,
      "ǣR": 8611,
      "ǣN": 8612,
      "ǼżǼH": 8613,
      "¥ǣQ¥": 8614,
      "ǚA": 8615,
      "ȄJ": 8616,
      "ȭY": 8617,
      "ǧR": 8618,
      "ǣO¤": 8619,
      "ǊO¥": 8620,
      "ǊT¡": 8621,
      "ǫ5¡": 8622,
      "ǫ0 ": 8623,
      "ǣT ": 8624,
      "¢ǉō": 8625,
      "¡ǉŇǉō": 8626,
      "ȤP": 8627,
      "ª": 8628,
      "³": 8629,
      "¡ǼM": 8630,
      "¡ǉŵ": 8631,
      "ǢN¡": 8632,
      "Ǩ9 Ǩ@": 8633,
      "ǉţ": 8634,
      "ǉř": 8635,
      "ǉŏ": 8636,
      "ǉŧ": 8637,
      "ȄV": 8638,
      "%ɒÞǉŋ": 8639,
      "ǣJ¥": 8640,
      "ǫ:¡": 8641,
      "¬": 8642,
      "ðǉũ": 8643,
      "ȀH": 8644,
      "Ȅ3": 8645,
      " ǧF": 8646,
      "á": 8647,
      "õ": 8648,
      "¢ǣO¢": 8649,
      "ǣL¥": 8650,
      "ǋ[ ": 8651,
      "ǊM": 8652,
      "ǉŘ": 8653,
      "ȍ>": 8654,
      "ȢP": 8655,
      "ȮS": 8656,
      " ò": 8657,
      "¥â": 8658,
      "ǉţǉŨ": 8659,
      "ǉŐ": 8660,
      "°": 8661,
      "¡ǣN": 8662,
      "¸": 8663,
      "ǸG": 8664,
      "%ɒÞǊE": 8665,
      " ǉň": 8666,
      "ǣQ": 8667,
      "ǊT": 8668,
      "ǫ2¡": 8669,
      "¥â": 8670,
      "ǨE¥": 8671,
      "¡ú": 8672,
      "ǉō": 8673,
      "ǉŞǉŢ": 8674,
      "Ǩ9 Ǩ@ ": 8675,
      "­": 8676,
      "ǜF": 8677,
      "ȄA": 8678,
      "ȚM": 8679,
      "ǣV": 8680,
      "¥ø": 8681,
      "¡ǉņ¡ǉő": 8682,
      "ǉţ": 8683,
      "ǉŘ": 8684,
      "ǰW": 8685,
      "ǊQ": 8686,
      "ǣM": 8687,
      "Ɖî": 8688,
      "ǥM": 8689,
      "ǨL¡": 8690,
      "Ǌ]¡": 8691,
      "ǉőǉŨ": 8692,
      "÷": 8693,
      " ø": 8694,
      "Ɖî": 8695,
      "âǉō": 8696,
      "ǭ2¡": 8697,
      "¥ǉŇ": 8698,
      "¡ǣE": 8699,
      "ä": 8700,
      "ǊQ": 8701,
      "¢ǉō": 8702,
      "ǧB¡ǧI¡ǧN": 8703,
      "ǖb": 8704,
      "ǡ]": 8705,
      "æǉŉ": 8706,
      "ǣQ": 8707,
      "ǢT¡": 8708,
      "ǉŧ": 8709,
      "ǉŒ": 8710,
      "ǉś": 8711,
      "ǥR": 8712,
      "ǉŨ": 8713,
      "ǊO¥": 8714,
      "ǫ0¡": 8715,
      " ǉŉ": 8716,
      "Ǌ[": 8717,
      "Ǩ>¥": 8718,
      "¡ǧG¡ǧL": 8719,
      "¡ǣS¡": 8720,
      "ǥJ": 8721,
      "ǊJ": 8722,
      " ü": 8723,
      "ǣE£": 8724,
      "Þǉō": 8725,
      "ðǉŏ": 8726,
      "ǢƂ": 8727,
      "ï": 8728,
      "ã": 8729,
      "Ɖ": 8730,
      "ǥM": 8731,
      "ǉţ": 8732,
      "ëǉř": 8733,
      "Ǐa": 8734,
      "ǕH": 8735,
      "ǯ1": 8736,
      "ǊS": 8737,
      "ó": 8738,
      " ê": 8739,
      "ǉŉ": 8740,
      "ȝ]": 8741,
      "ȶT": 8742,
      "%ɒÞǣ<": 8743,
      "%ɒÞǭ>": 8744,
      "ǦF": 8745,
      " ǣJ": 8746,
      "¥ò": 8747,
      "ǊS¡": 8748,
      "ǉŕǉŨ": 8749,
      "Ã": 8750,
      "Ä": 8751,
      "ù": 8752,
      "ǊM¡": 8753,
      "âǉŨ": 8754,
      "ȅR": 8755,
      "¡ǥB": 8756,
      "ǊO": 8757,
      "¡ò": 8758,
      "ǧO¥": 8759,
      "ǤżǤK": 8760,
      "²": 8761,
      "ǣQ": 8762,
      "ǝW": 8763,
      "ȉD": 8764,
      "ȸZ": 8765,
      "ǥQ": 8766,
      "ǊO ": 8767,
      "ǉō": 8768,
      "ǝa": 8769,
      "ǳ[": 8770,
      " ǉŉ": 8771,
      "ǧE": 8772,
      "îǉņǉō": 8773,
      "ǉŉǉō": 8774,
      "ǉő": 8775,
      "Å": 8776,
      "ǉŌ": 8777,
      "ǣH": 8778,
      "º": 8779,
      "îǫ<": 8780,
      "ȃ=": 8781,
      "ǥL": 8782,
      "ȿ": 8783,
      "¥ò": 8784,
      "ǧO¡": 8785,
      "ǉņǉŏ": 8786,
      "ǉŎ": 8787,
      "ǉŒ": 8788,
      "ȓh": 8789,
      "ǣT": 8790,
      "ǫ5¡": 8791,
      "ǫ-¡": 8792,
      "¡ǉŇ¡ǉō¡": 8793,
      "ǉŎ": 8794,
      "Ë": 8795,
      "ôǉŋ": 8796,
      "ǝN": 8797,
      "ǻl": 8798,
      "ǣJ": 8799,
      "ç": 8800,
      "è": 8801,
      "îǉŇǉō": 8802,
      "Ǣ<¡": 8803,
      " ǧF ": 8804,
      "ǉŌ": 8805,
      "ǚl": 8806,
      "ǩG": 8807,
      "ȼP": 8808,
      "¡ǫ3": 8809,
      " ǥF": 8810,
      "ǣR¥": 8811,
      "¢ǉņ": 8812,
      "¡ǉŋ": 8813,
      "ǊP¡": 8814,
      "ǧH¥": 8815,
      "Á": 8816,
      "ǛF": 8817,
      "ǿŻ": 8818,
      "ȟL": 8819,
      "Ȩ]": 8820,
      "å": 8821,
      "ñ": 8822,
      "£î": 8823,
      "¥ǣQ": 8824,
      "Ǧ;": 8825,
      "¡ǫ0": 8826,
      " ǧ@": 8827,
      " ǉŏ": 8828,
      "ǉŨ": 8829,
      "ǊV¥": 8830,
      "ǨL¡": 8831,
      "ǣR": 8832,
      "ǛD": 8833,
      "ȮU": 8834,
      "û": 8835,
      "öǉŉ": 8836,
      "ǊM¥": 8837,
      "ǢO": 8838,
      "¡ǣN": 8839,
      "Ǚż": 8840,
      "ǥd": 8841,
      "ǮW": 8842,
      "Ƕ\\": 8843,
      "Ɖæ": 8844,
      " ǣL": 8845,
      "Ǧ<": 8846,
      "ǣT": 8847,
      " ǉŞ ": 8848,
      "¥î": 8849,
      "ǢO¡": 8850,
      "ǧ>¡": 8851,
      "ǉřǉŢ": 8852,
      "ǉŖ": 8853,
      "ǉŎ": 8854,
      "ǉţ": 8855,
      "ǉŇǉō": 8856,
      "ý": 8857,
      " ǣM": 8858,
      "ȃ@": 8859,
      "òǉō": 8860,
      "á": 8861,
      "û": 8862,
      "Ǌ[": 8863,
      "ǊU¡": 8864,
      "ǊV": 8865,
      "ǉš": 8866,
      "Ȓi": 8867,
      "ǉņǉō": 8868,
      "ǣH": 8869,
      "¡ǥQ": 8870,
      "¡ì": 8871,
      "ý": 8872,
      "¥ö": 8873,
      "ǫ-": 8874,
      "Ǣ>¥ǢE¥": 8875,
      "ǧI¡ǧN¡": 8876,
      "ǉŧ": 8877,
      "ǘy": 8878,
      "ǥY": 8879,
      "£ǉŉ": 8880,
      "ǢSǢ[": 8881,
      "ǊM": 8882,
      "¡ǉō¡": 8883,
      "ǉř": 8884,
      "ȃ`": 8885,
      "Ța": 8886,
      "àǉō": 8887,
      "ǣS": 8888,
      "ǦE": 8889,
      "ǊR": 8890,
      " ǉŖ": 8891,
      "Ǌb¡": 8892,
      "ǊT": 8893,
      "ǊM": 8894,
      "ǉōö": 8895,
      "ǉŜ": 8896,
      "ȞZ": 8897,
      "ȩL": 8898,
      "ǣS": 8899,
      "ǣH": 8900,
      "õ": 8901,
      "ǥM": 8902,
      "¡ǧH": 8903,
      "ǭ5 ": 8904,
      "ǦM": 8905,
      "ǢK": 8906,
      "æ": 8907,
      "ǥŻǥO": 8908,
      "ǢJǢN": 8909,
      "¬": 8910,
      "ǪM": 8911,
      "ȑK": 8912,
      "ȩN": 8913,
      "ǥH": 8914,
      "¡ø": 8915,
      "ǢS": 8916,
      " æ": 8917,
      "ì": 8918,
      "ǊO": 8919,
      "ǉő": 8920,
      "ǉŊ": 8921,
      "Ǩe": 8922,
      "ǿa": 8923,
      "¥è": 8924,
      "÷": 8925,
      "ǣL": 8926,
      "ǥO": 8927,
      "ǥO": 8928,
      "ǫ9¡": 8929,
      "ǥT": 8930,
      "ǭ<¤": 8931,
      "Ǫ>¡": 8932,
      "ǉŬ": 8933,
      "°": 8934,
      "ãǉŋ": 8935,
      "ǓT": 8936,
      "å": 8937,
      "¡ǉŜ": 8938,
      "è": 8939,
      " ǉŉ": 8940,
      "Ǌ[¡": 8941,
      "ǏJ ": 8942,
      "Ǧ:¡": 8943,
      " ǨJ ": 8944,
      "ȇŻ": 8945,
      "Ɖ": 8946,
      "î": 8947,
      " ǉņ ": 8948,
      "ǉŧ": 8949,
      "ǉũ": 8950,
      "Ǐ:": 8951,
      "ǉŇǉŉ": 8952,
      "êǉō": 8953,
      "ǣK": 8954,
      " â": 8955,
      "ǫ2": 8956,
      "ǫ2 ": 8957,
      " ǉő": 8958,
      "ǫ0 ": 8959,
      "ǧJ¡": 8960,
      "ǧH": 8961,
      "ǧM": 8962,
      "¡ǣE": 8963,
      "Ǎd": 8964,
      "ǩM": 8965,
      "ǽA": 8966,
      "âǉō": 8967,
      "ǨO": 8968,
      "ǊM": 8969,
      "ǫ/¡": 8970,
      "ǥ@¡ǥG": 8971,
      "ǉř": 8972,
      "¥Ǣ@¥": 8973,
      "ǣQ": 8974,
      "ǉũ": 8975,
      "ǉŵ": 8976,
      "ǝ`": 8977,
      "ǥO": 8978,
      "¡ǉŖ": 8979,
      "è": 8980,
      "ǨA": 8981,
      "Ǌ]": 8982,
      "¡ǣJ¡ǣM": 8983,
      "ǉō": 8984,
      "țc": 8985,
      "ȟN": 8986,
      "ǊQ": 8987,
      "¡ǨH": 8988,
      "ǊQ": 8989,
      "Ɖî": 8990,
      "¥ǣC": 8991,
      "ǨE": 8992,
      "ǉňǉō": 8993,
      "¡ǢO": 8994,
      "ǉř": 8995,
      "¢ǣQ¢ǣU": 8996,
      "¡ǨF¡": 8997,
      "ǪG": 8998,
      "ǻj": 8999,
      "ɀW": 9000,
      "ǰR": 9001,
      "ñ": 9002,
      "ǣO": 9003,
      "ǥL¡": 9004,
      "Á": 9005,
      "¶": 9006,
      "ǡW": 9007,
      "Ǽ>": 9008,
      "%ɒÞǱ3": 9009,
      "ǥO": 9010,
      " ǉŖ": 9011,
      "ǊO¡": 9012,
      "£ǉő": 9013,
      "ǉũ ": 9014,
      "ü": 9015,
      "­ǉō": 9016,
      "ǉŔ": 9017,
      "¡ǣM": 9018,
      "ǫK": 9019,
      "ȝ[": 9020,
      "ȩM": 9021,
      "ù": 9022,
      "ǫ2": 9023,
      "ǊL¥": 9024,
      "ǊF": 9025,
      "ǧH ": 9026,
      "ǧA¡ǧH¡ǧM": 9027,
      "ǊQ": 9028,
      "ǊQ": 9029,
      "ǧ;¡ǧB¡ǧG¡": 9030,
      "ǔ^": 9031,
      "Ǜh": 9032,
      "ȍM": 9033,
      "ǣQ": 9034,
      "ǣQ": 9035,
      "¡ǉŖ": 9036,
      "¢ǉř": 9037,
      "ǫ5¡": 9038,
      "ǫ7¡": 9039,
      "ǢJ¡": 9040,
      "ǨC¡": 9041,
      "ǉōǉř": 9042,
      "Ǭ9 ": 9043,
      "Ë": 9044,
      "ǉŜ": 9045,
      "Ȓb": 9046,
      "%ɒÞǫ;": 9047,
      "òǉō": 9048,
      "ß": 9049,
      "æǉŉ": 9050,
      "¡ǦE": 9051,
      "ǰQ": 9052,
      "¥ǣH": 9053,
      "ô": 9054,
      "¡ǧT": 9055,
      "Ǭ2¡": 9056,
      "ǣS": 9057,
      "ǰJǰQ": 9058,
      "ǰMǰR": 9059,
      "ǉŰ": 9060,
      "ôǉņ": 9061,
      "ǒR": 9062,
      "ȕe": 9063,
      "%ɒÞư": 9064,
      "%ɒÞǊK": 9065,
      "å": 9066,
      "ã": 9067,
      "ǉŨ": 9068,
      "ǣS": 9069,
      "ǤżǤJ": 9070,
      "ǊFǊF": 9071,
      "¡ǣR": 9072,
      "ȚN": 9073,
      "é": 9074,
      "ß": 9075,
      "¡ǢO": 9076,
      "ǦE": 9077,
      "ǊT ": 9078,
      "ǦB¡": 9079,
      "ǉũ": 9080,
      "ǉŏǉŘ": 9081,
      "ȉż": 9082,
      "ǧF": 9083,
      "ǣR": 9084,
      "ù": 9085,
      "Ɖ": 9086,
      "ǫ2 ": 9087,
      "£ǉř": 9088,
      "ǫ. ": 9089,
      "¡ǧK": 9090,
      "ǉņǉř": 9091,
      "¢Ǣ]¢": 9092,
      "ǉŞ": 9093,
      "¡ǣT": 9094,
      "óǉř": 9095,
      "÷ǉř": 9096,
      "¥ǉŋ": 9097,
      "ǉũ": 9098,
      "ǉŖǉţ": 9099,
      "ǣżǣE": 9100,
      " ǉŇ ǉŇ": 9101,
      "ǉōú": 9102,
      "ǉŊǉő": 9103,
      "ǉřÅǉřÅ": 9104,
      "¡ǧG¡": 9105,
      "âǣH": 9106,
      "ëǉŖ": 9107,
      "ǖP": 9108,
      "ǉņ": 9109,
      "%ɒÞǧC": 9110,
      "û": 9111,
      "ǥQ": 9112,
      "ã": 9113,
      "ǉŨ": 9114,
      "ǉŇǉō": 9115,
      "Ǣ@¥": 9116,
      "¡ǣO": 9117,
      "÷": 9118,
      "¡ǥJ": 9119,
      "í": 9120,
      "¡ǥJ": 9121,
      "ǉňǉō": 9122,
      "¥ǉŖ": 9123,
      "ǨJ¡": 9124,
      "ǉş": 9125,
      "Ǔi": 9126,
      "Ȓa": 9127,
      "Ș]": 9128,
      "êǉō": 9129,
      "ǣQ¥": 9130,
      "ǊR¥": 9131,
      "ǣT¥": 9132,
      "ǊH¡": 9133,
      "¥ú": 9134,
      "Ǧ@": 9135,
      "ǉŠ": 9136,
      "Í": 9137,
      "%ɒÞƴ": 9138,
      "âǉō": 9139,
      "Ɖî": 9140,
      "ǊQ": 9141,
      "ǣM": 9142,
      "ǥM": 9143,
      "í": 9144,
      "ǫ-": 9145,
      "ê": 9146,
      "­ǉō": 9147,
      "Ǣ<¥Ǣ@¥": 9148,
      "¡ǣR": 9149,
      "Ǒ=": 9150,
      "ȲR": 9151,
      "ǊQ¡": 9152,
      "ǊH¡": 9153,
      "ǨJ": 9154,
      "ǭ2 ": 9155,
      "ǧF": 9156,
      "©ǉō": 9157,
      "ǋżǋF": 9158,
      "ǣŻǣG": 9159,
      "Ǩ<¡ǨC¡ǨH¡": 9160,
      "Ǩ9 Ǩ@ ǫ-¡ǉŇ": 9161,
      "ǉņ": 9162,
      "Ý": 9163,
      "ǉŒ": 9164,
      "ȉ?": 9165,
      "¡ǧK¡": 9166,
      "%ɒÞǣH": 9167,
      "õ": 9168,
      "ǣO": 9169,
      "ǉő": 9170,
      "ǥQ": 9171,
      "ǊR": 9172,
      "ǉō": 9173,
      "ǊY": 9174,
      "Ǌ<¡": 9175,
      "Ǩ9": 9176,
      "ǣN": 9177,
      "ǥMǥT": 9178,
      "ǥMǥTǥY": 9179,
      "ǮR": 9180,
      "ǷE": 9181,
      "%ɒÞǊV": 9182,
      "ǣL": 9183,
      "ë": 9184,
      " ǣO": 9185,
      "ǉōú": 9186,
      "ǢM ǢQ ǢV": 9187,
      "ǉŇǉŏ": 9188,
      "Ǎ?": 9189,
      "ǪO": 9190,
      " ä": 9191,
      "¥æ": 9192,
      "ǊQ": 9193,
      "ǰMǰR": 9194,
      "ǉŐ": 9195,
      "Ì": 9196,
      "Ç": 9197,
      "óǉŋ": 9198,
      "Ǩ:¡ǨA": 9199,
      "ǜK": 9200,
      "Ƿ^": 9201,
      "ǻh": 9202,
      "Ȯ^": 9203,
      "ǊM": 9204,
      "¥ê": 9205,
      "ǊO¡": 9206,
      "ǧL¡": 9207,
      "ǦB¡ǦE¡ǦJ¡ǦN¡": 9208,
      "ǨP¡": 9209,
      "ǉš": 9210,
      "Ȥb": 9211,
      "ǦJ": 9212,
      "ß": 9213,
      " ú": 9214,
      "¡â": 9215,
      "¡ê": 9216,
      "ǉř": 9217,
      "¡ǉō¡": 9218,
      "ǣV ǢM ǢQ ǢV": 9219,
      "±": 9220,
      "ǉŐ": 9221,
      "ȐC": 9222,
      "ɀF": 9223,
      "ǥN": 9224,
      "ǣM": 9225,
      "¡Ȼ": 9226,
      "å": 9227,
      "ǧL¡": 9228,
      "ǊR¢ǊX": 9229,
      "ǉŐ": 9230,
      "¡ǣN": 9231,
      "¾": 9232,
      " ǉŕ": 9233,
      "ǣO": 9234,
      "ǣM": 9235,
      "¡ò": 9236,
      "Ǩ@¥": 9237,
      "¡ǉō": 9238,
      "ǜżǜV": 9239,
      "ǉŦ": 9240,
      "ǒM": 9241,
      "ǱI": 9242,
      "ǳY": 9243,
      "ǹV": 9244,
      "ȲV": 9245,
      "ǤP": 9246,
      "ǊR": 9247,
      " ǉŏ": 9248,
      "¥ǉŖ": 9249,
      "£â": 9250,
      "ǧO ": 9251,
      "ǥX¡": 9252,
      "ǊżǊT": 9253,
      "Ǒa": 9254,
      "ǣJ": 9255,
      "ǦJ": 9256,
      "¥ê": 9257,
      "ȤT": 9258,
      "ǊmǊm": 9259,
      "ǣQ": 9260,
      "Ȯ\\": 9261,
      "ǉő": 9262,
      " ǣR": 9263,
      "£ǣQ": 9264,
      "ǧJ¡": 9265,
      "ǧO": 9266,
      "ǉőǉŔǉřǉŜ": 9267,
      "ǉřǉŴ": 9268,
      "ǣS": 9269,
      "ǓO": 9270,
      "Ȣd": 9271,
      "¡ø": 9272,
      "ǣL": 9273,
      "õ": 9274,
      " ǉŋ": 9275,
      "£â": 9276,
      "ǫ>¡": 9277,
      "ǊżǊQ": 9278,
      "ǉŎ": 9279,
      "ǖż": 9280,
      "ǩC": 9281,
      " ǥM ": 9282,
      "ç": 9283,
      "ý": 9284,
      "ǦE": 9285,
      "ǉōî": 9286,
      "Ȥ>ǉŚ": 9287,
      "ȩS": 9288,
      "ǣM": 9289,
      "ǥO¤": 9290,
      "ǣC¥": 9291,
      "ǧJǧQ": 9292,
      "ǉŋ": 9293,
      "ǊO": 9294,
      "ǉŋǉō": 9295,
      "~ǉř": 9296,
      "ǣQ": 9297,
      "¡ǣN": 9298,
      "Ǔe": 9299,
      "Ȍ@": 9300,
      "ǥE": 9301,
      " ë": 9302,
      "ǣN": 9303,
      "¡ǥQ": 9304,
      "ǣR": 9305,
      "¢ǢL": 9306,
      "ǊżǊF": 9307,
      "ǙHǙL": 9308,
      "ǰJǰQ": 9309,
      "ǉŎ": 9310,
      "ȂI": 9311,
      "ȍ?": 9312,
      "Ȥ^": 9313,
      "ǊL": 9314,
      "ǣO": 9315,
      " ǉŨ": 9316,
      "ǊQ¡": 9317,
      "ǊH¡": 9318,
      "ǨJ ": 9319,
      "¡ǢH": 9320,
      "ǨL¡ǨQ¡": 9321,
      "ǉņ": 9322,
      "ǉŰ": 9323,
      "ța": 9324,
      "¡ǣ>": 9325,
      "á": 9326,
      "ǥR": 9327,
      " ǣT": 9328,
      "ǫ2 ": 9329,
      "¥ú": 9330,
      "Ǩ;¡ǨB¡": 9331,
      "Ƕ^": 9332,
      "ȴH": 9333,
      "%ɒÞǬ7": 9334,
      "¡ǉŎ": 9335,
      "ǨV¡": 9336,
      "ǉŏ": 9337,
      "ƌî": 9338,
      "ǌ7": 9339,
      "ǛH": 9340,
      "ȃ:": 9341,
      "Ȥ@": 9342,
      "÷": 9343,
      "ǉőǉř": 9344,
      "é": 9345,
      "ë": 9346,
      "ǢO¥": 9347,
      "ǢJ¢": 9348,
      "½": 9349,
      "É": 9350,
      "ûǉŖ": 9351,
      "ȥ]": 9352,
      "Ǥ": 9353,
      "¡ǉŖ": 9354,
      "ǣO¥": 9355,
      "âǉō": 9356,
      "ǧJ¢": 9357,
      "£ǉņ": 9358,
      "¡ǉŇ": 9359,
      "ǭ9¡": 9360,
      "ǉŖǉŨ": 9361,
      "¤ǉō": 9362,
      "§ǉō": 9363,
      "Ǧ?¡": 9364,
      "ȐT": 9365,
      "ǉņǉř": 9366,
      "ô": 9367,
      "ǢM¡": 9368,
      "¡ö": 9369,
      "ǉŇǉő": 9370,
      "ǉŧ": 9371,
      "ìǉŖ": 9372,
      "ǹ?": 9373,
      "ș]": 9374,
      "ȥJ": 9375,
      "ȥP": 9376,
      "à": 9377,
      " ǊT": 9378,
      "ȤT": 9379,
      "ǉŔ": 9380,
      "ǱF": 9381,
      "ǥQ": 9382,
      "ǉŖǉř": 9383,
      "¥ö": 9384,
      "Ǩ> ǨE": 9385,
      "¦ǉō": 9386,
      "ǣŽǣF": 9387,
      "Á": 9388,
      "üǉő": 9389,
      "ǰ]": 9390,
      "Ȁd": 9391,
      "ǢQ": 9392,
      "¡ǉř": 9393,
      "¢ǉŇ": 9394,
      "ǣV": 9395,
      "ǣR": 9396,
      "ǉŇ¥ǉŖ¥": 9397,
      "§": 9398,
      "ȎR": 9399,
      "ǦJ": 9400,
      "ǣH": 9401,
      "ǉŠ": 9402,
      "£æ": 9403,
      "ǭ2¤": 9404,
      "ǦO¡": 9405,
      "­ǉŖ": 9406,
      "¡ǣS": 9407,
      "ǉų": 9408,
      "Ș`": 9409,
      "ǥQ": 9410,
      "ç": 9411,
      " ǊJ": 9412,
      "ǉōǉř": 9413,
      "ǨM": 9414,
      "â": 9415,
      "ǉŨ": 9416,
      "ǉŵ": 9417,
      "Ȓ^": 9418,
      "șb": 9419,
      "¡ü": 9420,
      "ǊM¥": 9421,
      "ǨJ": 9422,
      "ǧG ": 9423,
      "Ǩ;¡ǨB": 9424,
      "ǉņǉōò": 9425,
      "ǥYǥY": 9426,
      "ǉŕǉř": 9427,
      "ǣM ǣQ ǣV ǢM ǢQ ǢV": 9428,
      " ǣV ": 9429,
      "ǤA¡ǤH¡ǤM¡ǤQ": 9430,
      "ǉōǉřǉŨǉũ": 9431,
      " ǧF ": 9432,
      "ǕK": 9433,
      "ȢZ": 9434,
      "òǉō": 9435,
      "¡ǉŊ": 9436,
      "ä": 9437,
      "ǫ5¡": 9438,
      " ǉő": 9439,
      "¥ǉŋ": 9440,
      "ǊK¡": 9441,
      "¡ǉō": 9442,
      "ǋX¢": 9443,
      "ǉőǉř": 9444,
      "Ǩ@¡ǨG¡": 9445,
      "ǉŌ": 9446,
      "Ä": 9447,
      "ǳR": 9448,
      "ǶM": 9449,
      "ȒS": 9450,
      "%ɒÞǰ5": 9451,
      "ǨT": 9452,
      "ë": 9453,
      "ǉő": 9454,
      " ǉŖ": 9455,
      "ǥQ": 9456,
      "ǣM¢ǣQ¢": 9457,
      "ǦH¡": 9458,
      "ä": 9459,
      "ǥX ": 9460,
      "Ǣ<¥": 9461,
      "ǉř": 9462,
      "ǉő": 9463,
      "Ǳ&": 9464,
      "Ǵ<": 9465,
      "Ǽ<": 9466,
      "ȨH": 9467,
      "Ȯ_": 9468,
      "¡ǤN": 9469,
      "Ɖö": 9470,
      "ǣJ": 9471,
      "à": 9472,
      "ø": 9473,
      "ǥR": 9474,
      "ǧH¡": 9475,
      "ǫ8": 9476,
      "îǉņǉō": 9477,
      "Ƕ`": 9478,
      "ȱQ": 9479,
      "¡ë": 9480,
      "ǫ5 ": 9481,
      "ǫ3": 9482,
      "ǋM¡": 9483,
      "ǣC": 9484,
      "ǉņǉś": 9485,
      "ǉŴ": 9486,
      "ȴZ": 9487,
      "ǣA": 9488,
      "ǊM": 9489,
      " ǧ:": 9490,
      "÷": 9491,
      " ǏJ ": 9492,
      "ǥV": 9493,
      "¡î": 9494,
      "ǉŉǉŊ": 9495,
      "Ǌ+ǊC": 9496,
      "ǉŴ": 9497,
      "ǉň": 9498,
      "ȣ@": 9499,
      "ǉŇǉō": 9500,
      "%ɒÞǊF": 9501,
      "ë": 9502,
      " â": 9503,
      "ǊQ¥": 9504,
      "ǣS¥": 9505,
      "ǫ.¡": 9506,
      "ǨC¥": 9507,
      "ǉŇǉũ": 9508,
      "¡ǣV": 9509,
      "ǉŴ": 9510,
      "ǉŎ": 9511,
      "ǚm": 9512,
      "ȓj": 9513,
      " à": 9514,
      "ǉş": 9515,
      "âǉō": 9516,
      "¥ǣL": 9517,
      "ǣQ£": 9518,
      "ǥQ": 9519,
      "ǫ7¡": 9520,
      "ǊH": 9521,
      "¥ǨF": 9522,
      "ǨA ": 9523,
      "ǧM¥": 9524,
      "¡ǣK": 9525,
      "ǉŘ": 9526,
      "Ȕ`": 9527,
      "ǥZ": 9528,
      "ǥT": 9529,
      "¡ǉŊ": 9530,
      " ò": 9531,
      " ǉņ": 9532,
      "¥ö": 9533,
      "ǤQ¡": 9534,
      "ǉřǉŨ": 9535,
      "ǉŭǉŶ": 9536,
      "ǽM¡ǼM": 9537,
      "ǫ1¡ǫ=¡ǧIǧU": 9538,
      "¡ǣR": 9539,
      "¡ǣS": 9540,
      "¡ǣS": 9541,
      "ȐJ": 9542,
      "ȼR": 9543,
      "ǉō": 9544,
      "¡ß": 9545,
      "à": 9546,
      "ǋO": 9547,
      "ǨS ": 9548,
      "ǧ9¡ǧ@¡ǧE": 9549,
      "ǉŠ": 9550,
      "¡öǉŉ": 9551,
      "û": 9552,
      "ǫ5 ": 9553,
      " ǉř": 9554,
      "¢ú": 9555,
      "ǨC": 9556,
      "ǣW": 9557,
      "țR": 9558,
      "ìǉņ": 9559,
      "ȅ[": 9560,
      "ȭW": 9561,
      "¡ǣS": 9562,
      "Ƿ]": 9563,
      "õ": 9564,
      "ǉš": 9565,
      "û": 9566,
      "ǥS": 9567,
      " ǉŏ": 9568,
      "¡ǉŨ": 9569,
      "ǦC": 9570,
      "î": 9571,
      "À": 9572,
      "ǮZ": 9573,
      "ȄF": 9574,
      "ȨP": 9575,
      "á": 9576,
      "ǧI": 9577,
      "ǊL": 9578,
      " ǣQ": 9579,
      "æǉŉ": 9580,
      "á": 9581,
      "¥î": 9582,
      " î": 9583,
      "ǤO ": 9584,
      "ǏżǏM": 9585,
      "ȊH": 9586,
      "¡ǨK": 9587,
      "ǣO": 9588,
      "ǣO": 9589,
      "¡ǥH": 9590,
      "ǉŜ": 9591,
      "ǧS¡": 9592,
      "­": 9593,
      "Å": 9594,
      "ǉś": 9595,
      "ǉŵ": 9596,
      "ǡ^": 9597,
      "ȄT": 9598,
      "ȗ]": 9599,
      "%ɒÞǣA": 9600,
      "øǉō": 9601,
      "ǊQ¡": 9602,
      "¡â": 9603,
      "ǣT¢": 9604,
      "ǧ@¡": 9605,
      "Ǭ2¡": 9606,
      "ǺJ": 9607,
      "ǣV": 9608,
      "ǉŇǉō": 9609,
      "¼": 9610,
      "ǉţ": 9611,
      "ǐ9": 9612,
      "ȁ`": 9613,
      "ȳ[": 9614,
      "¡ǭ9": 9615,
      "ǣR": 9616,
      "úǉō": 9617,
      "ǣN": 9618,
      "ǥP": 9619,
      "¡ǥJ": 9620,
      "ø": 9621,
      "ǉŇǉōǉŔ": 9622,
      "¡ǣK": 9623,
      "ǉŇ": 9624,
      "ǉŚ": 9625,
      "ǉŔ": 9626,
      "ǉś": 9627,
      "Ë": 9628,
      "¡à": 9629,
      "¡ǥH": 9630,
      "ǊR": 9631,
      "ǤQ ": 9632,
      "ǉřǉŭǉŶ": 9633,
      "Ǭ4¡": 9634,
      "ǉŵ": 9635,
      "ǋŻǋQ": 9636,
      "ǉŢ": 9637,
      "ǩN": 9638,
      "ȋB": 9639,
      "Ȣa": 9640,
      "ȪN": 9641,
      "¡ǫ<": 9642,
      "ǥT": 9643,
      "ǫ7¡": 9644,
      "ǢJ¥": 9645,
      "¡ǧ<": 9646,
      "ǦO¡": 9647,
      "Ǌ>¡": 9648,
      "ǉŏǉũ": 9649,
      "Ǳ= ": 9650,
      "ǊmǊm": 9651,
      "ǜ6": 9652,
      "ǝ^": 9653,
      "Ȇ^": 9654,
      "ȭH": 9655,
      "¡ǦJ": 9656,
      "ǢH¡": 9657,
      "ǭ2¡": 9658,
      "ǉōǉř": 9659,
      "ǉōǉŏǉő": 9660,
      "ǉř": 9661,
      "ǣI": 9662,
      "²": 9663,
      "ǑD": 9664,
      "ǳW": 9665,
      "ǥT": 9666,
      "¡ǨK": 9667,
      "ǊT": 9668,
      "ǣJ": 9669,
      "ñ": 9670,
      "ǨI": 9671,
      "¥ê": 9672,
      "ǉņǉō": 9673,
      "ǉŋǉō": 9674,
      "%ɒÞǣL": 9675,
      "ǉŋǉō": 9676,
      "¡ä": 9677,
      "ǥM": 9678,
      "ǉŏ": 9679,
      "õ": 9680,
      "ǫ0¡": 9681,
      "ǷX": 9682,
      "ǉőǉřǉŭ": 9683,
      "ǣX": 9684,
      "ȅZ": 9685,
      "Ț=": 9686,
      " Ǩ@": 9687,
      " ǣO ": 9688,
      "ǣF": 9689,
      "õ": 9690,
      "Ɖö": 9691,
      "¡ì": 9692,
      "ǥV": 9693,
      "¥æ": 9694,
      "ǫ.¡": 9695,
      "¨ǉŇ": 9696,
      "ǉŮ": 9697,
      "¸": 9698,
      "ǉŴ": 9699,
      "Ǡb": 9700,
      "ȽP": 9701,
      "ǉŬ": 9702,
      "á": 9703,
      "¡ǉŨ": 9704,
      "ǉőǉř": 9705,
      "à": 9706,
      "ǣM¥": 9707,
      "£ǉŉ": 9708,
      "ǦA": 9709,
      "ǊQ": 9710,
      "ȡC": 9711,
      "Ǩ>¡ǨE¡": 9712,
      "ǉś": 9713,
      "¡ǣQ": 9714,
      "¡ǣE": 9715,
      "Ǖe": 9716,
      "ǛA": 9717,
      "%ɒÞǱ.": 9718,
      "ǊV": 9719,
      "ǊT": 9720,
      "ï": 9721,
      "Ɖ": 9722,
      "ǫ5": 9723,
      " ò": 9724,
      "ǦJ¥": 9725,
      "¢ǉŉ": 9726,
      "ǊX": 9727,
      "Ǧ>": 9728,
      "ǧA": 9729,
      "ǧV": 9730,
      "¥ǉŖ": 9731,
      "Ǩ[": 9732,
      "¡ǉŇ¡ǉő": 9733,
      "¡ǣV": 9734,
      "ǉũ": 9735,
      "ǌ:": 9736,
      "ǩE": 9737,
      "Ȅ6": 9738,
      "ǥI": 9739,
      "Ɖò": 9740,
      "å": 9741,
      "ǫ5": 9742,
      " æ": 9743,
      "ǫ3 ": 9744,
      "îǉņǉō": 9745,
      "ǧK¡": 9746,
      "ǉŊǉś": 9747,
      "ȩT": 9748,
      "ó": 9749,
      "ù": 9750,
      " Ǫ5 ": 9751,
      "¥î": 9752,
      "ǊN¡": 9753,
      "¡ǢH¡": 9754,
      "¢ǉŇ": 9755,
      "¢ǉō": 9756,
      " ": 9757,
      "ǧ2": 9758,
      "ȸ": 9759,
      "ǣF": 9760,
      " ô": 9761,
      "ï": 9762,
      "ǊQ¥": 9763,
      "¥ú": 9764,
      "ǧJ ": 9765,
      " ö": 9766,
      "ǧQ¡": 9767,
      "ǉř": 9768,
      "ǉņǉŇ": 9769,
      "ǉş": 9770,
      "ǉŌ": 9771,
      "¡ǣH": 9772,
      "ǭS": 9773,
      "ȑc": 9774,
      "ǉņǉő": 9775,
      "Ɖö": 9776,
      " ǣO": 9777,
      " ǉŜ": 9778,
      "¡ì": 9779,
      "¡ǥQ": 9780,
      "ǊM ": 9781,
      " ê": 9782,
      " æ": 9783,
      "ǨO¥": 9784,
      "ȊJ": 9785,
      "ȤTȤX": 9786,
      "º": 9787,
      "ȒO": 9788,
      "șY": 9789,
      "%ɒã": 9790,
      "Ǭ1": 9791,
      " ǊO": 9792,
      "ǊE": 9793,
      "ǣM¥": 9794,
      "ǫ7 ": 9795,
      "ǉňǉō": 9796,
      "ǦC¡": 9797,
      "­ǉō": 9798,
      "ǉş": 9799,
      "¡ǣJ": 9800,
      "ǒT": 9801,
      "ȃ8": 9802,
      "ǉŦ": 9803,
      " ǉŨ": 9804,
      "¥ǨA": 9805,
      "ǢP ": 9806,
      "ǐ@ǐLǐL": 9807,
      "çǉŉ": 9808,
      "ǲa": 9809,
      "ȍJ": 9810,
      "ȡ3": 9811,
      "¡ǭ0": 9812,
      "ìǉō": 9813,
      " ǉŌ": 9814,
      "âǉō": 9815,
      "ǉř": 9816,
      "å": 9817,
      " ǧA": 9818,
      "òǉō": 9819,
      "ǊQ£": 9820,
      "û": 9821,
      "ǦH": 9822,
      "ǊA ": 9823,
      "£ǉō": 9824,
      "ǊżǊR": 9825,
      "ǊT": 9826,
      "ǉŨ": 9827,
      "ǉů": 9828,
      "ǕI": 9829,
      "ȉ^": 9830,
      "ǊO": 9831,
      "ǣM": 9832,
      "¡ǨI": 9833,
      "¢ǉņ": 9834,
      " ǣO": 9835,
      "ǣH": 9836,
      "ǧE ": 9837,
      "Ǧ>": 9838,
      "êǉō": 9839,
      "¤ǉō": 9840,
      "ǣV": 9841,
      "ǉŉǉō": 9842,
      "¡ǣI": 9843,
      " ǣQ ǣU": 9844,
      "ǢO¡ǢT¡": 9845,
      "¿": 9846,
      "ǉŵ": 9847,
      "ǌj": 9848,
      "Ȇ`": 9849,
      "ȍQ": 9850,
      "Ș^": 9851,
      "ȡD": 9852,
      "ȳ@": 9853,
      "ȽR": 9854,
      "ǉŇ": 9855,
      "ǥG": 9856,
      "¡ǉŎ": 9857,
      "ǉũǉŭ": 9858,
      "ǨO¡": 9859,
      "ǋT¡": 9860,
      "ǧMǧR": 9861,
      "ǢD": 9862,
      "ǉŇ": 9863,
      "ǉŖ": 9864,
      "ǉŰ": 9865,
      "ǉŒ": 9866,
      "ȗY": 9867,
      "àǉō": 9868,
      "ï": 9869,
      "¥ǉŉ": 9870,
      "ǭ5¡": 9871,
      "ǧC¥": 9872,
      "ǖC": 9873,
      "ȀG": 9874,
      "¡ǥM": 9875,
      "ǦK": 9876,
      "ð": 9877,
      "¥æ": 9878,
      "¥ö": 9879,
      "¥ǉŇ": 9880,
      "ǊT": 9881,
      "ǉů": 9882,
      "¡ǣT": 9883,
      "ǳK": 9884,
      "ǣV": 9885,
      "¡ǉŏ": 9886,
      "ß": 9887,
      "ǥT": 9888,
      "ǥQ": 9889,
      "ǊM£": 9890,
      " ǉņ": 9891,
      "ǢS¥": 9892,
      "´": 9893,
      "ǰż": 9894,
      " Ɖê": 9895,
      "í": 9896,
      "ǊO": 9897,
      "ǫ4 ": 9898,
      "ǦC": 9899,
      "ǨL¡": 9900,
      "£ǉņ": 9901,
      "ǉř": 9902,
      "ǉŉǉōǉř": 9903,
      "ǎ8": 9904,
      "êǉō": 9905,
      "í": 9906,
      "ǣL": 9907,
      "¡ǥM": 9908,
      "û": 9909,
      "ǥT": 9910,
      "ǨF": 9911,
      "ǉŬ": 9912,
      "ȩ[": 9913,
      "ȴU": 9914,
      "ȾN": 9915,
      "¡ǨE": 9916,
      "ǥV": 9917,
      "¡è": 9918,
      "ǥO¡": 9919,
      "ǉňǉō": 9920,
      "ǫ- ": 9921,
      "ǉŇǉŉ": 9922,
      "ǍV¡": 9923,
      "ǉņ": 9924,
      "ǉŇǉŉǉŊ": 9925,
      "ǧ=ǧDǧIǫ1": 9926,
      "ǣ": 9927,
      "º": 9928,
      "ǉŒ": 9929,
      "ǉş": 9930,
      "ǯ=": 9931,
      "ǵA": 9932,
      "ȅQ": 9933,
      "ȡ;": 9934,
      "ɀB": 9935,
      "¡ë": 9936,
      "òǉō": 9937,
      "ǫ2¡": 9938,
      "©ǉō": 9939,
      "ǥ;¡ǥB": 9940,
      "Ǧ\\": 9941,
      "ǉŘ": 9942,
      "ǞU": 9943,
      "ǧ5": 9944,
      "¡ǉş": 9945,
      "ǥJ": 9946,
      "ǣL": 9947,
      "¥ǣK": 9948,
      "ǥO": 9949,
      "ǫ2¢": 9950,
      " ê": 9951,
      "ǢO": 9952,
      "ǧM ": 9953,
      "ǭ4": 9954,
      "¡ǣE¡ǣJ¡ǣN": 9955,
      "µ": 9956,
      "ǌa": 9957,
      "ȊW": 9958,
      "ȍF": 9959,
      "ȤD": 9960,
      "%ɒÞǊL": 9961,
      "ǊO": 9962,
      "¡ǉŏ": 9963,
      " ǣM": 9964,
      "¢ö": 9965,
      "¥â": 9966,
      "¤ǉō": 9967,
      "ǣS": 9968,
      "ǣ5": 9969,
      " ǉŖ ": 9970,
      "Ǐ7": 9971,
      "Ǒ4": 9972,
      "ȏT": 9973,
      "Ȥ;": 9974,
      "Ɖæ": 9975,
      "ǊO": 9976,
      "û": 9977,
      "ǥV": 9978,
      "ǉŖ": 9979,
      "ǥQ¥": 9980,
      "ǣN ": 9981,
      "ǉřǉŵ": 9982,
      "ǊR": 9983,
      "ǊV": 9984,
      "ǉŞ": 9985,
      "Ɖý": 9986,
      "ǊU": 9987,
      "ǊR": 9988,
      "¡ǥE": 9989,
      " ǣT": 9990,
      "ǢQ": 9991,
      "ǫ7 ": 9992,
      "ǉŨ": 9993,
      "§": 9994,
      "ǋ1": 9995,
      "Ȅ=": 9996,
      "Ȇż": 9997,
      "Ȋ8": 9998,
      "%ɒÞǪ;": 9999
    },
    "merges": [
      " ǉ",
      " ǉ",
      "ǉ ō",
      "ǉ ō",
      " ¡",
      "ǉ Ň",
      " ¡",
      "% ɒ",
      "ǉ ņ",
      "%ɒ Þ",
      " ",
      " ",
      " ",
      "ǉ ŉ",
      "ǉ ō",
      " ",
      "ǉ ř",
      " ¡",
      " ",
      " ǣ",
      " ",
      "  ",
      "  ",
      "¡ ǣ",
      "  ",
      " ",
      " ",
      " ",
      " ",
      " ǉ",
      " ",
      " ",
      " ",
      " ",
      " ¥",
      " ",
      "ǉ ŋ",
      " ¡",
      " ",
      "ǉ Ũ",
      " ",
      " ",
      " ¡",
      " ",
      "ǉ ř",
      " Ǌ",
      " ",
      " ǉō",
      "ǉ ũ",
      " ¥",
      " ¡",
      " ",
      " ¡",
      " ¡",
      "ǉ ő",
      " ",
      " ¡",
      " ¡",
      " ",
      " ",
      " ",
      "ǉ ŏ",
      " ǉ",
      " ¡",
      " ¡",
      " ",
      " ¡",
      " ¡",
      " ǉ",
      " ",
      "  ",
      " ǉ",
      "  ",
      " ",
      " ",
      " ",
      " ",
      " ",
      "ǉ Ŗ",
      " ",
      "ǉ ŉ",
      " ",
      "ǉ ņ",
      "  ",
      " ",
      "ǣ J",
      " ¡",
      "ǣ Q",
      "  ",
      " ¢",
      "  ",
      "  ",
      "ǣ O",
      "ǉ Ň",
      "ǉ ő",
      " ",
      "ǉ Ŗ",
      "ǉ Ũ",
      " ¥",
      "  ",
      "Ǌ O",
      " ¢",
      " ¢",
      "ǉ ŋ",
      " ",
      "ǣ M",
      "Ǌ Q",
      " ",
      " ",
      " ",
      "ǣ L",
      " ",
      "ǣ H",
      "ǉ ŵ",
      "ǉ Ň",
      " ¥",
      "Ǌ M",
      "  ",
      "Ǌ T",
      "ǫ 2",
      "ǫ 5",
      " ",
      "  ",
      " ¥",
      "ǫ 7",
      "  ",
      " ¥",
      " ¡",
      " ǉō",
      "ǉ ŏ",
      "Ǌ J",
      "  ",
      "ǥ Q",
      "ǥ O",
      " £",
      " £",
      " ¥",
      " ¡",
      "Ǌ V",
      "ǫ 0",
      "ǉ ř",
      "Ǌ R",
      "  ",
      " ¥",
      "ǉ ņ",
      "ǉ ň",
      "ǥ J",
      " ¥",
      " ¡",
      "ǉ ũ",
      "ǣ T",
      "Ǌ L",
      "ǥ M",
      "Ǣ O",
      "ǉ ŉ",
      "Ǌ H",
      " ¤",
      " ǉō",
      " ",
      "ǣ R",
      " ¥",
      "ǣ E",
      " ¥",
      "Ǣ J",
      "Ǣ Q",
      "ǉ Ũ",
      " ¥",
      " ǉō",
      " ",
      "Ǧ J",
      " ",
      " ¥",
      "ǫ 9",
      " £",
      "â ǉō",
      "  ",
      " ¢",
      "ǥ L",
      " ¥",
      " ǉō",
      "ǫ 4",
      " ",
      "ǣ N",
      "ǥ T",
      "ǣ S",
      " ¢",
      "  ",
      " ǉō",
      "ǥ H",
      "Ǣ M",
      "Ǧ C",
      " ­",
      " ǉō",
      " ǉō",
      "ǉ Ţ",
      " ¢",
      "Ǣ H",
      "Ǩ J",
      "ǣ C",
      "Ǌ Y",
      "ǉ ũ",
      "ǉ ţ",
      "Ǩ E",
      " ¢",
      "Ǌ S",
      "ǧ J",
      "Ǧ E",
      "ǉ š",
      "ǧ E",
      "ǭ 7",
      " ¢",
      "Ǧ H",
      "Ǌ X",
      "Ǌ [",
      "ǣ K",
      " ©",
      "Ǣ L",
      "ǉ ŋ",
      "ǣ F",
      " ǉō",
      "Ǩ H",
      "Ǌ N",
      "ǉō ",
      "ǫ .",
      " ¤",
      " £",
      "Ǌ K",
      " ¢",
      "ǭ 5",
      "ǣ V",
      "ǭ 2",
      "Ǩ C",
      "ǥ V",
      "Ǣ T",
      "ǥ R",
      " ¥",
      " £",
      "  ",
      " ¡",
      " ¡",
      " £",
      "ǋ O",
      "ǫ -",
      " ¢",
      "Ǌ P",
      " ǉō",
      "ǉ Ŋ",
      " ¤",
      "ǉ ŵ",
      "ǫ 3",
      "¡ ǧ",
      "ǉ ő",
      "ǋ M",
      " ǉō",
      "ǋ Q",
      "Ǧ L",
      "ǣ I",
      "ǭ 9",
      "ǉ Ŋ",
      "ǥ S",
      "ǫ <",
      "ǉ ŏ",
      "ǥ E",
      "ǧ Q",
      " ¤",
      "Ǩ O",
      " £",
      " ©",
      "Ǩ L",
      "Ǧ O",
      " £",
      "ǉ ŉ",
      "ǥ N",
      "ǧ O",
      "Ǥ O",
      "Ǌ F",
      "ǋ T",
      " ¢",
      " £",
      " ",
      "Ǌ W",
      "ǧ L",
      "ǉ Ř",
      "ò ǉō",
      " ǉō",
      "Ǥ Q",
      "Ǩ A",
      "Ǧ M",
      "Ǌ ]",
      "Ǣ S",
      "ǧ H",
      " ­",
      "ǧ C",
      " ",
      "ǣ P",
      "ǉ Ş",
      "Ǩ Q",
      "Ǌ U",
      "  ",
      "ǋ J",
      "æ ǉŉ",
      "Ǧ A",
      "ǉ ś",
      " ǣ",
      "Ǧ >",
      "Ǥ M",
      "Ǣ E",
      "ǉ Ő",
      " ¢",
      "Ǌ E",
      "Ǫ 7",
      "ǉ Ş",
      "ǉ Ŕ",
      " ¥",
      "ǉ Ŗ",
      " ¢",
      "Ǩ @",
      "ǣ G",
      "Ǌ A",
      "ǫ :",
      "ǉ Ŕ",
      "ǉ ň",
      "ǫ 6",
      " £",
      "ö ǉŉ",
      " ¤",
      "ǉ Ŗ",
      "¡ ǉō",
      " ¤",
      "Ǧ Q",
      " ¥",
      "ǧ M",
      "Ǥ J",
      "Ǌ C",
      "Ǩ F",
      "ǉŇ ǉō",
      "ǫ >",
      " ½",
      " ¢",
      "ǥ K",
      "ǭ 4",
      "ǋ V",
      "Ǌ I",
      "ǣ A",
      "ǭ 0",
      "ǫ 1",
      " ǉō",
      "Ǣ R",
      "Ǣ N",
      "ǥ P",
      "  ",
      "Ǩ G",
      " ¢",
      " ǉř",
      "ǫ /",
      "ǋ L",
      "ǥ G",
      "ǉ Ō",
      "ǧ A",
      "Ǩ >",
      "ǭ <",
      " £",
      " ­",
      " £",
      "Ǩ M",
      " ǉō",
      " ",
      " ",
      " ǉō",
      "Ǫ 5",
      "ê ǉō",
      "Ǧ G",
      " ¡",
      "¡ ǉŇ",
      "Ǧ @",
      "ǥ C",
      " ǉō",
      "Ǣ C",
      "ǋ H",
      " £",
      "Ǣ V",
      "ǉ š",
      " ¤",
      " ¢",
      "ǧ G",
      " £",
      "ǣ >",
      " ¤",
      "Ǌ <",
      "ǣ X",
      "ǉ Ŵ",
      "Ǧ <",
      "¡ ǉŇ",
      " ¤",
      "¡ǣ Q",
      "¡ ǉō",
      "ǣ ż",
      "ǧ >",
      "Ǌ `",
      "Ǥ R",
      "ǋ R",
      " ǉō",
      "Ǥ H",
      "ǣ O",
      "  ",
      "ǉ Ŏ",
      "Ɖ î",
      "Ǣ K",
      "à ǉō",
      "ǥ Y",
      " ­",
      "¡ǣ O",
      "Ǫ <",
      "Ǌ G",
      "ú ǉō",
      " ǉō",
      " ¤",
      "ǥ X",
      "Ǥ V",
      "Ǩ <",
      "ǫ 8",
      "Ǥ T",
      " ǉř",
      "Ǌ Z",
      "Ǌ >",
      "ǣ J",
      "ǧ V",
      " ¥",
      "ǣ Q",
      "ǧ @",
      "Ǧ F",
      "ǉ Ř",
      "Ǫ 9",
      "ǉ Ţ",
      " ¤",
      "ǧ F",
      " ­",
      " ¤",
      " ¤",
      "Ǻ Q",
      "ǣ @",
      "ǣ U",
      "Ǥ L",
      "ǉņ ǉō",
      " ­",
      " £",
      "Ǌ ^",
      "ǥ U",
      "ǧ S",
      "Ǧ N",
      "ǥ I",
      "ǉ ő",
      "ǥ F",
      "Ǧ T",
      " ¡",
      "ǧ T",
      "ǭ 6",
      " ",
      "î ǉō",
      "ǣ <",
      "Ɖ ö",
      "Ǧ 9",
      "ǧ I",
      "Ǭ 2",
      "ǉ Š",
      "î ǉŇ",
      " ©",
      "Ǻ O",
      "ǋ S",
      "¡ǣ J",
      "Ǻ T",
      "ǉ Ŝ",
      "ǥ W",
      "ǭ >",
      "  ǉō",
      " ǉō",
      "ǫ ;",
      "Ǌ :",
      "Ǫ >",
      "Ǩ T",
      " ¡",
      "Ǫ 2",
      " ǉř",
      " ",
      " ¨",
      "¡ ǉņ",
      " ¤",
      "Ǩ I",
      " ǉō",
      "ǥ @",
      "Ǌ b",
      "ǉ Ő",
      " ©",
      "Ǻ V",
      "Ǐ Q",
      "ǭ :",
      "ǉ Ũ",
      " ¢",
      " ǉō",
      "Ǩ B",
      "ð ǉō",
      "Ǫ :",
      "ǥ A",
      "¡ǣ L",
      " ǉř",
      "Ǩ V",
      "ǣ M",
      "Ǣ I",
      "¡ǣ M",
      "Ǌ \\",
      "è ǉō",
      "ǉ Ň",
      " ǉō",
      " ǉř",
      "Ɖ æ",
      "Ǌ ż",
      "ǜ [",
      "Ǣ P",
      " ǉō",
      "ǉ ţ",
      " ǉō",
      " ǉř",
      "ǭ 3",
      "î ǉņ",
      "Ǻ M",
      "Ǐ O",
      "Ǩ D",
      "Ǌ 9",
      "ǋ X",
      "ǜ ]",
      "Ǌ 7",
      "Ǩ 9",
      " ǉř",
      "Ǣ F",
      "ǭ ;",
      " ",
      "Ǳ 5",
      " ¦",
      "Ǧ B",
      " ©",
      "%ɒÞ ǉŇ",
      "ì ǉō",
      "ø ǉō",
      "ǉ ş",
      " ¤",
      " ©",
      " ©",
      "ǥ ż",
      "ǣ L",
      "Ǩ K",
      " ­",
      "ǣ W",
      "ǉ Œ",
      " §",
      "ü ǉō",
      "ǥ >",
      " ǉř",
      "ǣ Y",
      "Ǫ 0",
      "ǧ N",
      " ­",
      " ½",
      "ǉ Ň",
      "Ǧ I",
      "¡ ǉŉ",
      " ǉō",
      " ­",
      "Ǌ _",
      "ǭ .",
      "Ǌ ;",
      "ǋ Y",
      " Ǌ",
      "æ ǉō",
      " £",
      "Ǭ 9",
      "ô ǉō",
      "Ǩ N",
      "ǧ K",
      "ä ǉō",
      "Ǭ 7",
      " ǉř",
      " ½",
      "Ɖ ú",
      "ǉ Ŏ",
      "ǉ ŋ",
      "ǿ Q",
      "Ǧ K",
      "Ǐ J",
      "ǉ Ŝ",
      " ­",
      " £",
      " ǉř",
      "Ǌ ?",
      " ©",
      "ǧ B",
      "Ǐ M",
      " §",
      "ǉ ś",
      " ­",
      " ǉř",
      "Ǌ 5",
      " ©",
      "  ǉō",
      "ǭ 8",
      "  ǉō",
      " ǉ",
      "Ǻ Y",
      "ǧ R",
      "ǧ X",
      "Ǻ [",
      "ǋ N",
      " ¨",
      " ¨",
      "Ǫ 4",
      "Ǣ @",
      "ǉ ŏ",
      "ǉ ŉ",
      "Ɖ ê",
      " ¢",
      "ǉņ ",
      "ǉ ů",
      " ©",
      "Ǩ ?",
      " ",
      " ­",
      " ǉō",
      "Ǭ 4",
      "ǣ H",
      "  ",
      " ú",
      " ­",
      " ǉō",
      "Ǩ S",
      "ǭ -",
      "ǎ O",
      " ¦",
      "ǧ <",
      "ǉ ŉ",
      "ǉō ",
      "Ǥ S",
      "Ǥ N",
      "Ǣ G",
      "ǋ K",
      "Ǻ X",
      "ǉ ř",
      "ǉ Š",
      " ǉř",
      "Ǌ @",
      "Ǧ V",
      " ǉ",
      " ǉř",
      "ǎ Q",
      "ǉ ų",
      " §",
      "ǋ P",
      "Ǧ S",
      "ǜ `",
      " ¦",
      "Ǧ R",
      " ǉ",
      "¡ ǉō",
      " ©",
      "¡ǣ H",
[...]
